<unk>	0
<s>	0
</s>	0
.	-1.84343
(	-3.55544
▁	-3.65235
▁=	-4.17457
)	-4.26576
▁{	-4.30943
▁}	-4.32113
s	-4.35226
,	-4.37844
_	-4.38305
);	-4.41625
▁(	-4.43217
lang	-4.76123
▁java	-4.77978
get	-4.95343
▁if	-5.0697
;	-5.10506
("	-5.11138
▁+	-5.20529
();	-5.20904
java	-5.28608
▁"	-5.29762
▁new	-5.42236
e	-5.44399
String	-5.45133
▁((	-5.4523
▁org	-5.52921
util	-5.64709
▁com	-5.73957
().	-5.76877
",	-5.86745
))	-5.87904
set	-5.88346
▁null	-5.90243
d	-5.95419
");	-5.96281
())	-5.96552
i	-5.98006
▁public	-6.02429
▁return	-6.08646
org	-6.09573
com	-6.12339
n	-6.13631
());	-6.13816
▁void	-6.13887
add	-6.15883
▁android	-6.18433
<	-6.18777
m	-6.19489
R	-6.20392
android	-6.22204
▁:	-6.22506
▁==	-6.23495
else	-6.25336
t	-6.26033
Id	-6.27556
));	-6.32682
new	-6.32774
▁@	-6.36339
id	-6.36549
ed	-6.36566
List	-6.36688
()	-6.3916
>	-6.40564
2	-6.46365
S	-6.48212
▁int	-6.49283
▁!=	-6.50473
c	-6.50685
ing	-6.50809
View	-6.51099
er	-6.51815
x	-6.51997
r	-6.52554
Type	-6.56451
Name	-6.57344
▁i	-6.57494
a	-6.58658
▁m	-6.59608
is	-6.61007
v	-6.62464
Exception	-6.65089
▁for	-6.65366
io	-6.66157
▁e	-6.66938
Override	-6.67367
[	-6.68769
F	-6.70912
(),	-6.74256
widget	-6.75069
1	-6.75307
j	-6.77336
3	-6.78599
p	-6.79505
y	-6.80307
▁&&	-6.80524
:	-6.81979
File	-6.82038
model	-6.82927
b	-6.86954
()))	-6.89594
T	-6.9001
Data	-6.90059
)));	-6.91605
C	-6.92531
view	-6.92557
"	-6.93679
g	-6.9534
▁case	-6.9666
f	-6.97208
int	-6.97329
core	-6.98351
javax	-6.98621
▁final	-6.98693
P	-6.99017
L	-6.99225
this	-6.99354
System	-7.00143
swing	-7.02479
-	-7.02742
▁<	-7.0627
D	-7.06352
B	-7.06987
Map	-7.07041
data	-7.07405
A	-7.07661
▁0;	-7.08487
▁true	-7.09086
▁break	-7.09448
▁-	-7.09686
▁false	-7.11724
o	-7.12387
Object	-7.1311
out	-7.1426
To	-7.17264
4	-7.17374
/	-7.18046
in	-7.18295
▁catch	-7.18795
equals	-7.1887
"));	-7.18992
k	-7.19865
Value	-7.20006
▁(!(	-7.21375
▁try	-7.21472
G	-7.22013
E	-7.22159
)))	-7.22166
size	-7.23317
w	-7.23714
▁this	-7.24816
(((	-7.24822
apache	-7.25803
u	-7.25816
put	-7.25931
Manager	-7.26264
awt	-7.28048
os	-7.2856
I	-7.29203
name	-7.29484
M	-7.29509
")	-7.31116
toString	-7.31129
z	-7.31668
";	-7.32528
ID	-7.32601
X	-7.33004
H	-7.33314
class	-7.34292
println	-7.35955
content	-7.36185
Y	-7.36219
State	-7.3671
Context	-7.37323
al	-7.38447
Service	-7.39013
app	-7.39368
setText	-7.39487
api	-7.41068
]	-7.41096
Test	-7.41106
net	-7.42109
h	-7.42293
on	-7.42357
"))	-7.42874
append	-7.42952
Log	-7.43765
length	-7.44885
Node	-7.45269
Item	-7.46438
▁boolean	-7.48131
▁0)	-7.48298
▁*	-7.48572
event	-7.48784
▁||	-7.50827
N	-7.5084
V	-7.51282
Integer	-7.51679
create	-7.51705
User	-7.52107
2.	-7.52698
In	-7.53072
Info	-7.54172
client	-7.545
findViewBy	-7.5473
l	-7.55016
▁")	-7.55195
text	-7.55744
eclipse	-7.5577
[]	-7.56235
=	-7.56529
Text	-7.56678
Path	-7.56753
Date	-7.58477
\	-7.58853
value	-7.59247
ArrayList	-7.5933
▁>	-7.59449
getString	-7.5977
Button	-7.60651
▁(((	-7.61913
▁get	-7.63697
▁private	-7.64019
true	-7.64658
),	-7.64693
++)	-7.65335
Index	-7.65896
to	-7.66409
▁c	-7.66631
▁to	-7.66704
google	-7.67102
▁result	-7.68988
▁p	-7.6904
Message	-7.69217
common	-7.7011
or	-7.71123
Event	-7.71604
Utils	-7.71684
Result	-7.71877
Model	-7.72073
Set	-7.73699
Request	-7.73834
open	-7.74768
Color	-7.75185
es	-7.75942
user	-7.76083
Time	-7.76624
Activity	-7.77896
log	-7.78241
re	-7.78343
▁throws	-7.78723
type	-7.78817
▁j	-7.79056
W	-7.79868
show	-7.80235
ui	-7.80381
Intent	-7.80383
Error	-7.80505
J	-7.81188
▁is	-7.81271
1.	-7.81791
TextView	-7.82622
web	-7.8294
▁a	-7.83323
en	-7.83597
Response	-7.83647
ar	-7.83967
Size	-7.84827
Key	-7.8529
▁/	-7.85371
it	-7.85804
▁on	-7.8633
getName	-7.86701
Count	-7.87373
▁?	-7.87415
junit	-7.88697
json	-7.90381
db	-7.90554
Code	-7.90764
Builder	-7.90776
de	-7.9183
test	-7.92389
list	-7.93509
Number	-7.93641
▁throw	-7.942
5	-7.94434
file	-7.95165
O	-7.95538
0	-7.95754
Player	-7.96485
Class	-7.97076
start	-7.97109
Parser	-7.97653
▁net	-7.97885
Element	-7.98813
player	-7.99743
Client	-8.00022
support	-8.00186
entity	-8.00309
http	-8.00465
▁v	-8.01046
false	-8.01517
info	-8.02093
Listener	-8.02105
▁});	-8.02301
ation	-8.02748
able	-8.02917
item	-8.03067
an	-8.0319
getText	-8.03932
▁user	-8.04167
server	-8.04866
Util	-8.0507
Group	-8.0525
Layout	-8.05252
K	-8.05369
▁in	-8.05966
▁the	-8.06014
string	-8.06233
▁,	-8.06415
▁s	-8.06465
editor	-8.06564
Field	-8.06837
▁t	-8.07289
Table	-8.07322
ent	-8.07447
▁data	-8.07618
Location	-8.07702
Status	-8.07783
()));	-8.07796
Config	-8.07808
Handler	-8.07826
▁'	-8.08107
no	-8.08222
next	-8.08404
layout	-8.08566
el	-8.08735
sql	-8.08749
current	-8.09136
'	-8.09468
(("	-8.09659
me	-8.10101
le	-8.1026
utils	-8.10291
())));	-8.105
parser	-8.10715
Game	-8.10748
contains	-8.10762
From	-8.11001
▁b	-8.11207
Query	-8.11939
Assert	-8.12326
ic	-8.12835
Fragment	-8.13099
Image	-8.13401
service	-8.13513
ion	-8.13597
impl	-8.13656
Task	-8.13761
▁de	-8.13865
format	-8.15005
valueOf	-8.15092
Constants	-8.15338
").	-8.15557
▁while	-8.16198
game	-8.16443
line	-8.16597
▁current	-8.16649
Array	-8.17347
Entity	-8.17779
▁f	-8.17872
ch	-8.18098
Of	-8.18303
Main	-8.18342
Line	-8.18616
▁double	-8.18893
error	-8.1895
springframework	-8.19489
bukkit	-8.19853
at	-8.20742
▁r	-8.20934
Factory	-8.21348
map	-8.21849
Page	-8.22602
Position	-8.22648
as	-8.23576
us	-8.23587
▁0,	-8.23664
IOException	-8.2381
▁1;	-8.2421
8	-8.24212
▁set	-8.24642
code	-8.24689
ly	-8.2513
null	-8.25221
Z	-8.26013
▁static	-8.26289
For	-8.26388
Resource	-8.27024
App	-8.27115
time	-8.27135
▁player	-8.27181
q	-8.27325
▁db	-8.27417
On	-8.27526
im	-8.27811
▁file	-8.27912
setVisibility	-8.2827
key	-8.28296
storage	-8.28349
Label	-8.28653
Adapter	-8.28773
example	-8.28846
▁0	-8.29087
level	-8.29138
ro	-8.29149
Point	-8.29423
▁request	-8.29754
Entry	-8.299
GroupLayout	-8.29921
instanceof	-8.30361
cs	-8.30391
Input	-8.30539
Re	-8.30977
>();	-8.31171
remove	-8.31579
Panel	-8.3194
rs	-8.3201
project	-8.32169
getValue	-8.32318
end	-8.32796
Command	-8.33048
up	-8.3331
▁name	-8.33729
▁start	-8.33819
▁not	-8.34232
OnClickListener	-8.34237
close	-8.34564
final	-8.34819
By	-8.34916
Helper	-8.3506
▁value	-8.35121
input	-8.35696
Server	-8.35884
un	-8.36234
isEmpty	-8.36335
Long	-8.36588
Mode	-8.36632
ter	-8.36826
▁x	-8.36856
write	-8.37031
Token	-8.37274
())))	-8.37345
▁response	-8.37547
▁test	-8.38217
am	-8.38222
index	-8.38282
result	-8.38695
Block	-8.38762
ac	-8.38785
st	-8.39361
printStackTrace	-8.3949
▁tvWrong	-8.39611
▁1)	-8.39623
Action	-8.39635
li	-8.39956
query	-8.39968
TAG	-8.40394
schmidt	-8.40404
Score	-8.40822
minecraft	-8.41243
▁g	-8.41244
U	-8.42211
6	-8.423
ldpar	-8.4235
")))	-8.42471
Connection	-8.42669
Content	-8.42679
debug	-8.42795
▁l	-8.43314
Double	-8.43521
▁re	-8.4365
▁event	-8.43832
▁y	-8.439
xml	-8.44168
And	-8.44315
Math	-8.44583
++;	-8.44604
▁long	-8.45349
(0,	-8.46043
Controller	-8.46431
has	-8.46503
Update	-8.46552
context	-8.4747
Record	-8.48915
getId	-8.48996
swt	-8.49422
getInstance	-8.49495
internal	-8.49604
update	-8.4973
base	-8.49748
il	-8.49844
[]{	-8.49905
▁d	-8.50551
gui	-8.51291
co	-8.51379
image	-8.51596
scene	-8.51617
check	-8.51899
getInt	-8.52156
▁item	-8.52292
"),	-8.52328
Thread	-8.52509
my	-8.52683
th	-8.52845
▁message	-8.52968
annotation	-8.53094
Search	-8.53225
Dialog	-8.53248
and	-8.53394
No	-8.53456
mo	-8.53473
▁protected	-8.53476
domain	-8.53659
▁else	-8.54012
Settings	-8.54025
main	-8.5453
position	-8.55131
▁onClick	-8.55155
lo	-8.55424
la	-8.55645
orient	-8.55661
Method	-8.55971
et	-8.56298
▁%	-8.56445
path	-8.56504
parse	-8.56513
Property	-8.56685
request	-8.56976
node	-8.5704
URL	-8.57064
New	-8.57079
▁run	-8.57353
▁1	-8.57501
7	-8.57647
▁add	-8.57687
Level	-8.58013
▁>=	-8.58704
Start	-8.59045
▁super	-8.59204
se	-8.59274
▁list	-8.59371
SIZE	-8.60204
Url	-8.60285
search	-8.60352
All	-8.60557
SQL	-8.60583
▁R	-8.60635
controller	-8.60648
▁update	-8.60663
te	-8.60742
Toast	-8.60799
lat	-8.60971
DB	-8.61049
With	-8.61304
Json	-8.61627
10	-8.61916
▁type	-8.61955
NAME	-8.62093
build	-8.62097
Filter	-8.62125
ED	-8.62844
ta	-8.62846
7.	-8.62864
um	-8.63185
message	-8.63249
assertEquals	-8.63285
tools	-8.63401
▁view	-8.63423
LENGTH	-8.63597
\\	-8.63775
▁id	-8.63801
▁w	-8.63856
Order	-8.63899
Pos	-8.64242
min	-8.64435
bo	-8.64825
read	-8.64863
go	-8.65241
RE	-8.66153
logger	-8.66303
config	-8.66336
group	-8.6685
do	-8.67579
▁edu	-8.67899
18	-8.67953
▁of	-8.68125
1,	-8.68497
▁temp	-8.68808
Get	-8.69001
Menu	-8.69166
ri	-8.69244
((("	-8.69734
End	-8.6978
replace	-8.69808
table	-8.69836
github	-8.69973
\"	-8.70184
MainActivity	-8.70271
URI	-8.70313
ig	-8.70317
Bundle	-8.70345
gen	-8.70765
▁h	-8.7082
ant	-8.7101
IN	-8.71149
mockito	-8.7136
Stream	-8.71572
tr	-8.71641
▁n	-8.71717
▁switch	-8.71865
ur	-8.72256
▁create	-8.72664
▁ex	-8.72827
)),	-8.72831
2,	-8.72906
activity	-8.73018
Project	-8.73343
▁key	-8.73378
!	-8.73427
Tree	-8.7344
graphics	-8.73458
Row	-8.73539
Instance	-8.73679
Boolean	-8.74368
KEY	-8.74378
Provider	-8.74528
row	-8.74757
Base	-8.74886
Database	-8.75051
servlet	-8.75072
state	-8.75259
Format	-8.75263
cloud	-8.75584
Un	-8.75613
find	-8.75638
Num	-8.75656
Component	-8.75891
date	-8.75916
edu	-8.76192
Dir	-8.76207
▁line	-8.76455
▁"\	-8.7647
action	-8.76586
getMessage	-8.76614
Width	-8.76944
LOG	-8.76964
Store	-8.77038
one	-8.77076
getApplication	-8.77248
lib	-8.77253
makeText	-8.77423
▁0))	-8.77488
Transaction	-8.77498
from	-8.77617
▁intent	-8.77654
];	-8.77806
graph	-8.77846
Document	-8.78014
ul	-8.78077
▁io	-8.78261
database	-8.78302
▁sb	-8.78379
Session	-8.7844
Call	-8.78886
math	-8.79002
commons	-8.79282
ER	-8.79365
ip	-8.7958
▁;	-8.79732
ot	-8.79894
box	-8.79898
om	-8.80005
HashMap	-8.80056
ra	-8.80084
emc	-8.80131
Address	-8.80159
Configuration	-8.80221
load	-8.80332
ia	-8.80429
Check	-8.80794
Header	-8.8083
ma	-8.8096
ws	-8.80972
▁Toast	-8.80994
0,	-8.81355
Str	-8.81513
control	-8.81605
AL	-8.81639
▁javafx	-8.81959
Frame	-8.82004
wso	-8.82192
drawable	-8.82222
▁be	-8.82426
(0);	-8.82682
Window	-8.82824
framework	-8.82908
▁node	-8.82971
2);	-8.83131
▁context	-8.83285
parseInt	-8.8344
▁out	-8.83784
Tag	-8.83882
Port	-8.8393
object	-8.83998
est	-8.84008
if	-8.84297
▁index	-8.84537
De	-8.84747
pos	-8.84854
][	-8.84889
Or	-8.84907
Cache	-8.84989
print	-8.85106
ce	-8.85176
ment	-8.85183
rest	-8.85196
Sub	-8.8533
▁input	-8.85336
<>(	-8.85707
Source	-8.86001
Cell	-8.86226
ad	-8.86304
all	-8.86448
Add	-8.86473
TYPE	-8.8653
err	-8.8658
exec	-8.86581
▁builder	-8.87078
▁from	-8.87167
location	-8.87413
Out	-8.87466
9	-8.87509
▁<=	-8.87514
ge	-8.87521
Device	-8.87636
Form	-8.87686
ne	-8.87718
block	-8.87809
split	-8.8802
▁check	-8.88265
Version	-8.88377
services	-8.88472
source	-8.88716
clear	-8.88722
▁query	-8.88812
ActionListener	-8.88815
▁("	-8.89251
stack	-8.89311
%	-8.8932
bind	-8.89517
Job	-8.89632
Column	-8.89634
Tile	-8.89659
ut	-8.89676
plugin	-8.89808
ator	-8.90003
ex	-8.90191
Expression	-8.90191
13	-8.90235
builder	-8.90276
Properties	-8.90827
Height	-8.90908
engine	-8.90934
token	-8.91003
Font	-8.91113
▁main	-8.91236
field	-8.91354
▁float	-8.91548
color	-8.91572
Bar	-8.91682
▁&	-8.91686
max	-8.91707
▁log	-8.91815
str	-8.91895
per	-8.91925
of	-8.9195
UI	-8.92035
")));	-8.92037
ies	-8.92584
substring	-8.92693
Profile	-8.92779
response	-8.92856
Uri	-8.92894
Param	-8.92904
Link	-8.92916
SHORT	-8.93046
args	-8.9312
Default	-8.9318
At	-8.93234
Int	-8.93381
manager	-8.93418
Calendar	-8.93664
na	-8.93677
Left	-8.93742
dom	-8.93752
Card	-8.93834
▁map	-8.93928
▁config	-8.94082
ms	-8.94192
?	-8.9443
store	-8.94471
res	-8.94562
da	-8.94602
VISIBLE	-8.94819
Change	-8.95016
Reference	-8.95093
daylight	-8.95244
first	-8.9525
ag	-8.95275
ir	-8.9529
cc	-8.95291
tree	-8.95523
JSONObject	-8.95667
▁row	-8.95914
mp	-8.95994
Q	-8.96191
num	-8.96221
ol	-8.963
Impl	-8.96328
▁model	-8.96387
bit	-8.96586
20	-8.96587
Edit	-8.96624
Metadata	-8.96745
ho	-8.96969
▁continue	-8.97014
ate	-8.97134
di	-8.97175
sub	-8.97244
em	-8.97361
Stack	-8.97496
DEFAULT	-8.97563
temp	-8.97637
].	-8.97702
Graph	-8.97863
Container	-8.98009
last	-8.98022
Values	-8.98227
Ref	-8.98614
|	-8.98932
the	-8.98973
Target	-8.99036
addComponent	-8.99066
▁3	-8.99186
logic	-8.99293
▁2)	-8.9953
element	-8.99587
Box	-8.99963
Display	-8.99973
])	-9.00031
command	-9.00116
Msg	-9.00297
ING	-9.00419
▁default	-9.00454
[1]	-9.00614
setBackground	-9.0066
▁msg	-9.0069
[0]	-9.00714
ke	-9.00993
equalsIgnoreCase	-9.0107
ci	-9.0133
▁((((	-9.01371
ap	-9.01626
Items	-9.01643
16	-9.01696
Operation	-9.01778
Mockito	-9.02016
msg	-9.02058
Is	-9.02077
Storage	-9.02083
with	-9.02266
▁error	-9.025
Alignment	-9.02534
Move	-9.02865
carbon	-9.03091
old	-9.03138
▁btn	-9.03195
ca	-9.03323
▁count	-9.03589
Parameter	-9.0364
ga	-9.03785
media	-9.04002
title	-9.04116
VALUE	-9.04173
edit	-9.04236
cr	-9.04262
▁max	-9.04482
board	-9.04713
▁end	-9.04756
ance	-9.04827
▁0);	-9.04873
pl	-9.04907
Control	-9.04914
application	-9.05103
▁target	-9.05134
Tab	-9.0514
API	-9.0514
Channel	-9.05153
gms	-9.05199
▁dialog	-9.05218
Offset	-9.05218
!"	-9.05233
Vector	-9.05236
long	-9.05293
Local	-9.05332
hi	-9.05333
red	-9.05378
task	-9.0549
gl	-9.05581
ast	-9.05665
iv	-9.05738
▁0.0	-9.05772
draw	-9.05779
Camera	-9.05974
GL	-9.05979
>>	-9.05989
page	-9.06071
url	-9.06152
network	-9.06208
▁do	-9.06235
▁byte	-9.06286
nio	-9.06388
cat	-9.06444
tor	-9.06445
status	-9.06712
delete	-9.06849
Access	-9.06894
▁time	-9.07158
Enabled	-9.07273
))))	-9.07842
ActionEvent	-9.07975
▁"/	-9.08257
sp	-9.0826
count	-9.0842
Api	-9.08444
▁and	-9.08449
Screen	-9.08603
INSERT	-9.08857
ive	-9.08901
Buffer	-9.08931
Detail	-9.09011
Bean	-9.09021
Changed	-9.09034
width	-9.0912
trim	-9.09162
Params	-9.09352
Reader	-9.09437
op	-9.09445
team	-9.0945
Attribute	-9.09557
getType	-9.09573
Account	-9.09581
▁position	-9.09612
▁args	-9.09677
JLabel	-9.098
[0].	-9.09814
MAX	-9.0991
My	-9.10182
15	-9.10383
age	-9.10403
Html	-9.1048
repository	-9.10523
Notification	-9.10657
▁last	-9.10734
Term	-9.10951
ST	-9.10989
▁1))	-9.11062
Right	-9.11087
▁url	-9.11228
save	-9.11258
maps	-9.11274
Collection	-9.11285
av	-9.11349
au	-9.11352
Post	-9.11434
ja	-9.11452
br	-9.11768
ai	-9.11904
▁(-1))	-9.12176
11	-9.12287
lu	-9.12319
ve	-9.12504
Title	-9.12593
AT	-9.12605
ON	-9.12606
ity	-9.12883
platform	-9.12925
Output	-9.13004
Network	-9.13108
Product	-9.1313
▁image	-9.13152
ps	-9.13197
ha	-9.13332
As	-9.13377
INTO	-9.13438
pi	-9.13593
▁parent	-9.13725
▁date	-9.13736
▁text	-9.13795
Web	-9.14091
30	-9.14168
00	-9.14425
Float	-9.14954
ak	-9.14983
setEnabled	-9.15016
Style	-9.15035
EditText	-9.15328
button	-9.15371
Files	-9.15537
Not	-9.15862
ds	-9.15892
mi	-9.15969
ni	-9.16031
runtime	-9.16123
jet	-9.16615
du	-9.16717
▁VALUES	-9.16847
Unit	-9.16966
post	-9.17037
Length	-9.17111
tion	-9.17146
Report	-9.17202
Volume	-9.17303
12	-9.17308
Min	-9.17316
sdk	-9.17567
bl	-9.17579
register	-9.17621
LayoutParams	-9.17709
be	-9.17719
ti	-9.17755
Application	-9.17895
exception	-9.17913
Editor	-9.17913
models	-9.18065
we	-9.18081
Invalid	-9.18197
uc	-9.18208
Pro	-9.18251
uni	-9.1832
Callback	-9.1838
execute	-9.18536
send	-9.18547
▁1));	-9.18573
Obj	-9.18604
port	-9.18724
trace	-9.18827
pro	-9.19007
Password	-9.19026
system	-9.19086
echnologies	-9.1926
▁k	-9.19316
over	-9.19386
Repository	-9.19398
AN	-9.19446
▁task	-9.19485
lab	-9.19536
ted	-9.19599
▁it	-9.19746
hadoop	-9.20157
▁path	-9.20362
The	-9.2046
Generator	-9.20485
for	-9.20518
target	-9.20588
Folder	-9.20776
Options	-9.20828
JSON	-9.20947
Plugin	-9.20967
sendMessage	-9.20978
ok	-9.21249
cl	-9.2126
▁1,	-9.21304
ml	-9.21376
▁|	-9.2138
ka	-9.21405
Writer	-9.21586
val	-9.21806
Click	-9.21927
Package	-9.22052
▁2	-9.22105
stream	-9.22146
*	-9.22172
▁with	-9.22342
ts	-9.22576
select	-9.22821
Show	-9.22853
{	-9.23164
Template	-9.23488
IT	-9.23585
▁my	-9.23679
▁doc	-9.23709
resource	-9.23725
pr	-9.23746
▁output	-9.23787
Gr	-9.24009
▁search	-9.24384
geo	-9.2453
(0).	-9.24553
IS	-9.24603
▁rs	-9.24638
▁res	-9.24991
[2]	-9.25052
DE	-9.25068
selected	-9.25142
Matchers	-9.2518
parent	-9.25207
Var	-9.2546
▁params	-9.25625
Details	-9.25941
plugins	-9.25958
run	-9.26055
simple	-9.2615
pa	-9.26177
GUI	-9.26368
14	-9.26513
prefs	-9.266
ang	-9.26677
man	-9.26784
Up	-9.26793
security	-9.26819
Short	-9.26837
Types	-9.27242
col	-9.2725
Statement	-9.27402
▁(!	-9.27482
▁client	-9.27624
sa	-9.27747
actionPerformed	-9.27853
▁has	-9.27892
Pattern	-9.28005
getClass	-9.28023
1);	-9.28057
ERROR	-9.28057
btn	-9.28097
Range	-9.2837
Category	-9.28511
Icon	-9.28568
Rule	-9.28584
device	-9.28671
Email	-9.29078
Con	-9.29125
Child	-9.2921
Create	-9.29268
Http	-9.29309
Preference	-9.29409
od	-9.29516
MenuItem	-9.29612
((((	-9.29632
▁assert	-9.29768
report	-9.29892
Dimension	-9.29923
XML	-9.30168
}	-9.30287
InputStream	-9.30314
Names	-9.30318
▁finally	-9.30347
Body	-9.30379
19	-9.3057
Function	-9.30646
▁all	-9.30967
One	-9.31012
work	-9.31073
jo	-9.31075
▁connection	-9.31086
(1,	-9.31091
auth	-9.31199
spec	-9.31222
▁session	-9.31341
Val	-9.31387
getCurrent	-9.31432
Edge	-9.31549
("\	-9.3176
play	-9.31833
StringBuilder	-9.31931
("/	-9.32011
part	-9.32039
act	-9.3206
exist	-9.32079
▁sub	-9.32102
Logger	-9.32138
▁game	-9.32263
world	-9.32291
bar	-9.32334
random	-9.3241
ting	-9.32514
language	-9.32631
Selected	-9.32777
OR	-9.32833
po	-9.32902
Open	-9.33043
▁jj	-9.33124
ct	-9.33157
Progress	-9.33245
values	-9.33263
▁group	-9.33294
(1);	-9.33358
Module	-9.33388
round	-9.33527
link	-9.33592
getParameter	-9.33705
yang	-9.33711
ix	-9.33773
17	-9.33837
getActivity	-9.33944
▁call	-9.33987
local	-9.3405
▁load	-9.34145
Step	-9.34248
ChatColor	-9.34299
ns	-9.3436
Host	-9.34504
▁page	-9.34537
Chat	-9.3462
CENTER	-9.34649
ru	-9.34681
LE	-9.34688
Select	-9.34723
▁info	-9.34833
he	-9.34931
Match	-9.34986
tag	-9.35005
First	-9.3508
mock	-9.35155
bi	-9.35216
1)	-9.35258
▁entry	-9.35377
▁min	-9.35404
obj	-9.35645
Interface	-9.35685
menu	-9.358
▁json	-9.35839
entry	-9.35943
book	-9.35959
ub	-9.36085
49	-9.361
tech	-9.36116
ine	-9.3617
output	-9.36236
Grid	-9.36266
Selection	-9.36302
▁app	-9.36327
light	-9.3636
record	-9.36379
▁num	-9.36386
▁read	-9.36605
Pre	-9.3661
bio	-9.36643
ist	-9.36712
Do	-9.36727
child	-9.36783
Multi	-9.36817
getKey	-9.36842
▁first	-9.36846
▁me	-9.36855
Java	-9.36861
▁no	-9.36929
ACTION	-9.37016
▁table	-9.3708
25	-9.37489
▁status	-9.37497
▁savedInstance	-9.37645
▁next	-9.37958
Char	-9.38093
▁1);	-9.38161
Read	-9.38301
Pane	-9.38431
))));	-9.38472
tra	-9.38552
Col	-9.38713
day	-9.38735
64	-9.38738
▁child	-9.38764
concurrent	-9.38835
Description	-9.38947
events	-9.38947
mark	-9.39056
txt	-9.39065
export	-9.3907
Identifier	-9.39185
chat	-9.39265
ba	-9.39299
▁jLabel	-9.39338
(((("	-9.39344
ec	-9.39373
setAttribute	-9.39377
Plan	-9.39379
rt	-9.39397
entities	-9.39427
_1	-9.39645
▁state	-9.39645
▁holder	-9.39718
DialogInterface	-9.3984
')"	-9.39868
poly	-9.39871
ty	-9.39905
con	-9.39922
Process	-9.39972
home	-9.40026
OK	-9.40032
html	-9.40051
EN	-9.40056
Parameters	-9.40096
ay	-9.4011
types	-9.4012
init	-9.40227
sh	-9.4025
provider	-9.4027
order	-9.40278
Random	-9.40393
not	-9.40587
▁button	-9.40648
height	-9.40658
Cursor	-9.40748
AR	-9.4088
▁o	-9.41101
assertTrue	-9.41185
Matrix	-9.41274
host	-9.41304
Abstract	-9.41333
LOGGER	-9.41391
Core	-9.41402
Area	-9.41432
Loader	-9.41494
Bitmap	-9.41559
Results	-9.4156
Iterator	-9.4157
intent	-9.41727
://	-9.41749
getX	-9.41911
TO	-9.41982
▁z	-9.42008
Runnable	-9.42039
▁\"	-9.42093
ref	-9.4219
ab	-9.42252
▁match	-9.42546
Room	-9.4258
session	-9.4258
Login	-9.42612
qu	-9.42636
card	-9.42666
dao	-9.42709
Part	-9.42762
▁method	-9.42764
Option	-9.42887
array	-9.42909
▁evt	-9.42932
Flow	-9.42939
+	-9.42941
Annotation	-9.43049
compiler	-9.43068
fs	-9.4311
left	-9.43155
gr	-9.43157
▁found	-9.43201
putExtra	-9.43228
product	-9.43378
Variable	-9.43413
doc	-9.43457
inventory	-9.43467
resources	-9.43535
label	-9.43538
▁source	-9.43611
let	-9.43613
PREFERRED	-9.43707
▁handle	-9.43718
▁show	-9.43725
Note	-9.43741
ice	-9.43754
Amount	-9.4384
pt	-9.4397
▁location	-9.44044
Total	-9.44086
active	-9.44095
Team	-9.44152
▁values	-9.4417
Enum	-9.44182
▁field	-9.44333
bad	-9.44402
▁content	-9.44469
Global	-9.44491
module	-9.44498
UN	-9.44578
hs	-9.44747
vm	-9.4476
ust	-9.44948
Word	-9.44998
ImageView	-9.45037
ical	-9.45042
setVisible	-9.45076
assertThat	-9.45282
job	-9.45329
Pair	-9.45372
▁total	-9.45467
ence	-9.45554
Cluster	-9.45587
GONE	-9.4562
▁init	-9.45665
▁assertEquals	-9.45688
flow	-9.45761
Day	-9.45838
process	-9.46044
Media	-9.46056
matches	-9.46171
Board	-9.46171
Price	-9.46329
df	-9.46437
IC	-9.46488
fi	-9.46559
0.	-9.46597
dev	-9.46597
pc	-9.46639
brains	-9.46711
ial	-9.46739
meta	-9.46772
Null	-9.46838
Run	-9.46846
Descriptor	-9.46943
Exp	-9.46987
Messages	-9.47058
antlr	-9.47068
ck	-9.47208
animation	-9.47392
way	-9.47393
widgets	-9.47396
lt	-9.47436
AST	-9.47458
sun	-9.47463
Top	-9.47479
exceptions	-9.47627
Root	-9.47637
Current	-9.47671
Ch	-9.47675
▁object	-9.47731
▁column	-9.47877
▁un	-9.47879
Queue	-9.48004
Packet	-9.48384
▁selected	-9.48488
Op	-9.48501
50	-9.48511
filter	-9.48651
Work	-9.48664
2)	-9.48805
')	-9.48816
Spec	-9.49021
Direction	-9.49084
<?>	-9.49142
Directory	-9.49235
ian	-9.49375
si	-9.49432
fe	-9.49515
pm	-9.49526
pdf	-9.49562
use	-9.49683
savedInstance	-9.49785
ill	-9.49808
Me	-9.49859
Last	-9.49959
Be	-9.50018
javafx	-9.50075
Socket	-9.50084
▁startActivity	-9.50107
Next	-9.50153
addGroup	-9.50208
getItem	-9.50275
ehcache	-9.50288
var	-9.50437
Registry	-9.50609
Arrays	-9.50741
Meta	-9.50742
mod	-9.50753
ell	-9.50873
oo	-9.50886
adapter	-9.50936
▁str	-9.51099
BigDecimal	-9.51125
▁{}	-9.51293
Region	-9.51335
getUser	-9.51375
can	-9.51451
vo	-9.51459
getY	-9.5147
Build	-9.51525
ide	-9.51553
getProperty	-9.51554
indexOf	-9.51601
loci	-9.51643
apper	-9.51681
cur	-9.51839
fr	-9.52026
ger	-9.52149
schema	-9.52163
@	-9.52222
▁send	-9.52285
evt	-9.52312
IP	-9.52315
right	-9.52315
</	-9.52374
Definition	-9.52428
OutputStream	-9.52474
▁Has	-9.52538
▁con	-9.52554
tu	-9.52598
note	-9.52668
:"	-9.528
structure	-9.52896
LatLng	-9.52953
▁server	-9.52979
containsKey	-9.52983
Auth	-9.53001
Animation	-9.53094
params	-9.53415
Common	-9.53595
pre	-9.53666
=")	-9.53669
getTime	-9.53746
bus	-9.53887
ud	-9.53988
▁((!(	-9.54027
default	-9.54064
ItemStack	-9.54134
SecondsUntilDone	-9.54147
copy	-9.5424
Auto	-9.54298
▁size	-9.54475
▁token	-9.54501
Parse	-9.54588
logging	-9.54818
so	-9.54881
setValue	-9.55158
▁title	-9.55199
talend	-9.55228
back	-9.55347
localctx	-9.55498
▁project	-9.55644
▁label	-9.55658
rate	-9.55677
▁-1;	-9.55735
fa	-9.55793
▁element	-9.55797
TimezoneM	-9.55844
((((("	-9.55856
getData	-9.55857
▁3)	-9.55898
Question	-9.55901
und	-9.55976
firebase	-9.55977
dto	-9.55989
getResources	-9.55994
36	-9.56043
getContext	-9.56076
Over	-9.56264
top	-9.56354
column	-9.56374
Gap	-9.5645
ko	-9.56465
header	-9.56531
float	-9.56556
shared	-9.56562
move	-9.56598
Stop	-9.56654
Doc	-9.56799
▁eu	-9.56823
Binding	-9.56951
4,	-9.57005
▁2;	-9.57061
sim	-9.57136
rev	-9.5717
startsWith	-9.57195
tl	-9.57208
▁"'	-9.57269
▁6	-9.573
▁root	-9.57344
000	-9.57417
NOT	-9.57477
('	-9.57503
US	-9.5752
▁menu	-9.57557
▁process	-9.57565
Se	-9.57573
Keys	-9.57574
Inventory	-9.57582
number	-9.57739
sTo	-9.57835
▁(-1))].	-9.57919
dl	-9.58019
▁delete	-9.5802
Expr	-9.58133
levelData	-9.58179
Back	-9.58208
bean	-9.5823
helper	-9.58323
Max	-9.58338
[((	-9.5834
Failed	-9.5837
uk	-9.58383
IO	-9.58397
▁class	-9.58416
exists	-9.58422
ry	-9.58508
protocol	-9.58512
ped	-9.58639
checker	-9.58716
gson	-9.58791
collect	-9.58797
pp	-9.58838
idBagConstraints	-9.58858
Simple	-9.58978
arg	-9.59043
Dis	-9.59055
Extra	-9.59125
Video	-9.59138
tab	-9.5914
form	-9.59528
Lock	-9.59552
USER	-9.5956
Mod	-9.59567
Load	-9.59579
hu	-9.59607
setFont	-9.59629
ers	-9.59685
tool	-9.59705
vi	-9.59912
ash	-9.59941
Scale	-9.59944
Bytes	-9.60011
▁tv	-9.60018
eu	-9.60022
display	-9.6006
Role	-9.60069
Db	-9.60083
root	-9.60088
Return	-9.60093
Play	-9.60096
ctx	-9.60136
grammar	-9.60184
Focus	-9.60234
matcher	-9.6026
▁st	-9.60307
▁store	-9.60332
LINE	-9.60346
kernel	-9.60407
NO	-9.60411
='	-9.60473
▁as	-9.60558
Vertex	-9.60764
pe	-9.60833
onCreate	-9.60863
▁se	-9.60983
addAll	-9.61014
ement	-9.61025
An	-9.6104
▁parse	-9.6118
SQLException	-9.61331
setOn	-9.61337
ft	-9.61395
craft	-9.61449
method	-9.61478
Person	-9.61483
Co	-9.61509
sign	-9.6153
fragment	-9.6155
>()	-9.61579
oc	-9.61587
(@	-9.6159
settings	-9.61596
components	-9.6165
byte	-9.61673
Active	-9.61765
mb	-9.61832
lwjgl	-9.61837
admin	-9.6203
Space	-9.62131
rand	-9.62243
▁find	-9.62246
dd	-9.62286
Save	-9.6229
▁old	-9.62353
▁sql	-9.62478
transform	-9.62651
ary	-9.62669
CH	-9.6267
CO	-9.62673
JOptionPane	-9.62706
[(	-9.62803
getPlayer	-9.62889
point	-9.63285
begin	-9.63397
grid	-9.63498
total	-9.63619
▁onCreate	-9.63656
change	-9.63766
Cost	-9.63844
Condition	-9.63875
▁arg	-9.6392
Engine	-9.63948
24	-9.63976
Delete	-9.63985
space	-9.64018
Download	-9.64019
instance	-9.64211
body	-9.6422
5,	-9.64237
nlb	-9.64303
sample	-9.6432
mm	-9.64355
Dto	-9.64372
demo	-9.64391
Pool	-9.64396
If	-9.64412
En	-9.64453
Wrapper	-9.6447
▁save	-9.64528
xx	-9.64564
layer	-9.64635
ized	-9.64728
SWT	-9.64762
raw	-9.64902
▁block	-9.64909
Compat	-9.64928
custom	-9.64966
SELECT	-9.64983
bot	-9.65005
sf	-9.65008
fl	-9.65096
stop	-9.65149
80	-9.6522
version	-9.65338
(((((	-9.65394
▁expected	-9.65453
setTitle	-9.65481
annotations	-9.6563
ship	-9.65652
ff	-9.65819
apply	-9.65829
plan	-9.65994
art	-9.66034
hub	-9.66049
term	-9.66067
getS	-9.66109
▁4)	-9.66118
exit	-9.66186
getDefault	-9.66215
Material	-9.66239
OF	-9.66287
urrentTimeMillis	-9.66485
par	-9.66651
SET	-9.66685
her	-9.66935
ning	-9.66968
persistence	-9.67165
▁filter	-9.67217
(100	-9.67521
RED	-9.67548
Place	-9.67605
ze	-9.67639
Tools	-9.67699
sam	-9.67804
tv	-9.67824
arm	-9.67827
END	-9.67943
▁q	-9.67971
▁4	-9.68089
▁2))	-9.68164
commit	-9.68227
Gen	-9.68263
▁1),	-9.68292
STATE	-9.68403
Btn	-9.687
Def	-9.6872
INVISIBLE	-9.68804
▁action	-9.68895
Mapping	-9.68934
push	-9.69011
▁resource	-9.6909
Down	-9.69141
▁11	-9.69157
▁order	-9.6916
script	-9.69281
sc	-9.69284
sort	-9.69399
SS	-9.69409
dp	-9.69417
Processor	-9.69528
stats	-9.69561
Gravity	-9.69575
Timer	-9.69637
You	-9.69724
tvWrong	-9.69724
when	-9.69764
Audio	-9.69779
mon	-9.6978
lock	-9.698
Feature	-9.69843
▁service	-9.70018
▁1000)	-9.70078
png	-9.70093
ListView	-9.70228
ParallelGroup	-9.70252
AS	-9.70254
Temp	-9.70356
zz	-9.70516
]);	-9.70526
MODE	-9.7057
transaction	-9.70586
Scroll	-9.70593
jj	-9.70642
Mock	-9.70646
container	-9.70689
forge	-9.7072
Track	-9.70903
any	-9.70904
▁1.0	-9.71091
mc	-9.71164
sync	-9.71186
HashSet	-9.71224
cursor	-9.71256
Ad	-9.71269
Home	-9.71272
other	-9.71351
0.0	-9.71379
Inter	-9.71409
za	-9.71455
gwt	-9.71489
("<	-9.71542
Marker	-9.71604
iz	-9.71664
hamcrest	-9.71747
Driver	-9.71809
Duration	-9.71906
Month	-9.71907
ass	-9.71947
ae	-9.71955
insert	-9.71992
md	-9.72009
frame	-9.7209
connection	-9.72101
▁pos	-9.72189
dr	-9.72198
Absolute	-9.72225
ib	-9.72236
▁\	-9.72289
off	-9.72304
site	-9.72391
Permission	-9.72483
sha	-9.72519
setLayout	-9.72693
leveldone	-9.72755
UUID	-9.72793
match	-9.72812
camera	-9.72816
generate	-9.72897
SharedPreference	-9.73039
HttpServlet	-9.73115
src	-9.73193
double	-9.73291
ep	-9.73378
master	-9.73423
▁10	-9.73427
55	-9.7347
Layer	-9.73593
car	-9.73626
Ids	-9.73697
28	-9.73728
Dao	-9.73835
Book	-9.7385
▁command	-9.73874
global	-9.73918
eat	-9.7397
▁1)]	-9.73989
sleep	-9.74003
cluster	-9.74058
gdx	-9.74063
formats	-9.74066
▁cursor	-9.74178
dc	-9.74249
multi	-9.7426
ver	-9.74305
cache	-9.74415
▁edit	-9.74481
',	-9.74488
call	-9.74544
27	-9.74668
26	-9.74721
by	-9.74733
Nodes	-9.74751
Stats	-9.74788
Empty	-9.74917
Sync	-9.7494
Character	-9.74973
MS	-9.7506
▁lbl	-9.75144
▁tmp	-9.75188
Interrupted	-9.75227
Scope	-9.75309
face	-9.75315
address	-9.75325
protein	-9.75392
SE	-9.75406
robot	-9.75472
(0))	-9.75668
Fields	-9.75718
login	-9.75775
▁post	-9.7587
Member	-9.76009
intellij	-9.76053
SlotType	-9.76091
agent	-9.76104
World	-9.76114
opengl	-9.76224
▁product	-9.7626
Admin	-9.76282
hasNext	-9.76344
account	-9.76383
password	-9.76427
▁local	-9.76626
permission	-9.76744
ret	-9.76748
▁number	-9.76854
Custom	-9.76885
Schema	-9.76888
▁at	-9.76947
Ex	-9.76948
Internal	-9.76971
ob	-9.77021
Holder	-9.77071
binding	-9.77125
Case	-9.77157
step	-9.77157
getAttribute	-9.77272
Rest	-9.77286
tf	-9.77325
Setup	-9.77401
▁ctx	-9.77439
side	-9.77483
iterator	-9.7754
LA	-9.77551
head	-9.77658
▁co	-9.77805
▁logger	-9.77807
UP	-9.77996
Drawable	-9.78018
library	-9.7815
▁obj	-9.7824
nd	-9.78292
48	-9.78331
DTO	-9.78344
FileName	-9.78446
60	-9.78469
down	-9.78518
Off	-9.78581
▁txt	-9.7863
git	-9.78729
td	-9.7881
Spinner	-9.78835
abs	-9.78835
01	-9.78978
St	-9.78998
cell	-9.79019
Constraints	-9.79034
metadata	-9.79051
Attributes	-9.79078
component	-9.79185
▁left	-9.79227
ki	-9.79405
cb	-9.79497
design	-9.7957
ten	-9.79579
attribute	-9.7958
▁entity	-9.79588
dt	-9.7964
▁remove	-9.79648
ability	-9.79687
username	-9.79716
Contract	-9.79775
las	-9.79796
▁base	-9.79952
cor	-9.79955
▁you	-9.79975
Background	-9.79988
ph	-9.8002
profile	-9.80032
Recipe	-9.80034
ld	-9.80042
40	-9.80086
studio	-9.80088
Geo	-9.80127
Validation	-9.80242
Switch	-9.80244
Two	-9.80341
COLUMN	-9.80379
Remote	-9.8038
ard	-9.80384
dir	-9.80395
MESSAGE	-9.80466
pentaho	-9.80467
AlertDialog	-9.80482
regex	-9.80569
ner	-9.80651
▁B	-9.80819
▁generatedMap	-9.80901
VO	-9.80933
▁writer	-9.80934
cp	-9.80984
=\"	-9.81028
PI	-9.81102
dy	-9.81113
ua	-9.81122
Basic	-9.81163
uri	-9.81178
▁database	-9.81232
dot	-9.81353
prop	-9.81393
inter	-9.81467
\'	-9.81482
88	-9.81566
exp	-9.81635
▁15	-9.81644
connect	-9.81677
Sample	-9.81689
comp	-9.81703
[3]	-9.81786
▁move	-9.81813
font	-9.81886
tile	-9.82007
Byte	-9.82098
ll	-9.82112
der	-9.82149
ize	-9.82181
Sequence	-9.82297
Power	-9.82305
rule	-9.82307
unit	-9.82378
img	-9.82387
Parent	-9.82413
▁options	-9.82449
Counter	-9.82493
Widget	-9.8251
bb	-9.82524
0)	-9.82588
▁display	-9.8259
soft	-9.82629
3,	-9.82642
Language	-9.82661
Year	-9.82756
100	-9.82769
mq	-9.82815
DAO	-9.82857
center	-9.82996
isChecked	-9.83014
▁lng	-9.83057
phone	-9.83211
LONG	-9.83283
char	-9.83376
JButton	-9.8339
getLocation	-9.83495
▁ret	-9.83496
_0	-9.83547
MM	-9.83548
ess	-9.83603
getHeight	-9.83626
Policy	-9.8364
▁synchronized	-9.83641
registry	-9.8373
cm	-9.83739
Variables	-9.83812
▁or	-9.83842
Collections	-9.83864
factory	-9.83912
0);	-9.8399
▁an	-9.84023
▁col	-9.84034
Phone	-9.84089
tmp	-9.8413
getWidth	-9.84237
expression	-9.84248
Bit	-9.84365
Export	-9.84388
Flag	-9.84429
graphs	-9.84501
▁cell	-9.84503
getAll	-9.84521
warn	-9.84765
[0])	-9.84765
ale	-9.84813
Throwable	-9.84912
Trace	-9.84962
51	-9.85122
Animator	-9.8518
management	-9.85361
dap	-9.85369
ue	-9.85446
▁tag	-9.85487
JPanel	-9.85488
Speed	-9.85632
click	-9.85659
ber	-9.85719
▁should	-9.85724
rc	-9.85732
nt	-9.85758
▁setState	-9.85765
TEXT	-9.85813
cal	-9.85894
DATA	-9.85901
21	-9.85912
▁build	-9.86025
Script	-9.86178
Program	-9.86183
va	-9.86315
tive	-9.86318
Car	-9.86345
dialog	-9.86347
openmrs	-9.86364
FILE	-9.86365
Concept	-9.86461
setName	-9.86477
DO	-9.86534
cy	-9.86538
convert	-9.86572
assert	-9.86584
nodes	-9.86628
▁style	-9.86661
▁conn	-9.86744
▁20	-9.86846
acc	-9.8692
reflect	-9.86922
getBoolean	-9.86949
asm	-9.86957
23	-9.87255
▁buffer	-9.87348
▁record	-9.87349
blue	-9.87396
mode	-9.87421
complete	-9.8758
Touch	-9.87584
Points	-9.87595
▁container	-9.87624
Seconds	-9.87757
History	-9.87847
ade	-9.87901
air	-9.87924
now	-9.88003
portal	-9.88096
hr	-9.88138
Route	-9.88313
LinearLayout	-9.88315
99	-9.88332
series	-9.88337
auto	-9.8837
Res	-9.88424
Sp	-9.8845
Asset	-9.88455
room	-9.8849
Register	-9.88503
Renderer	-9.8854
IM	-9.88584
54	-9.88614
email	-9.88624
MO	-9.88641
▁color	-9.88647
driver	-9.88696
▁10)	-9.88723
Send	-9.88782
Bottom	-9.88787
▁device	-9.88997
channel	-9.89024
Extension	-9.89069
help	-9.8911
analysis	-9.89164
▁gui	-9.89244
Upload	-9.89274
urn	-9.89276
make	-9.89306
param	-9.89352
primary	-9.89353
addDefault	-9.89373
Per	-9.89391
ov	-9.89395
spinner	-9.894
ble	-9.89419
je	-9.89422
pixel	-9.89449
39	-9.89495
lan	-9.89495
CON	-9.89532
▁setContentView	-9.89546
ku	-9.89635
Rect	-9.89652
def	-9.89783
Al	-9.89842
ify	-9.89936
mail	-9.89952
Desc	-9.8998
22	-9.90154
Full	-9.90181
selenium	-9.9021
Success	-9.90554
objects	-9.90582
curr	-9.90642
▁height	-9.90663
Complete	-9.9082
sList	-9.91064
separator	-9.91075
Args	-9.91173
Rate	-9.91281
75	-9.91323
▁password	-9.91327
free	-9.91376
access	-9.91455
BufferedReader	-9.91462
actor	-9.91494
mer	-9.91543
ik	-9.91555
▁offset	-9.91628
section	-9.91662
kit	-9.91668
Valid	-9.91669
Slot	-9.91679
▁50	-9.91709
getParent	-9.91734
getColor	-9.91766
Contact	-9.9178
▁play	-9.9179
FLAG	-9.91947
verify	-9.92138
RuntimeException	-9.92239
▁param	-9.9237
Schedule	-9.92376
smart	-9.9238
Period	-9.92439
ATION	-9.92451
ach	-9.92548
LEADING	-9.92632
han	-9.9274
low	-9.92779
Weight	-9.92836
▁br	-9.92841
MA	-9.92869
▁1000	-9.92921
Management	-9.9293
charA	-9.92974
toLowerCase	-9.93023
65	-9.93048
Mo	-9.93067
setAdapter	-9.93131
▁reader	-9.93134
▁header	-9.93145
Handle	-9.93172
ev	-9.93188
document	-9.93236
▁cur	-9.93326
▁(-9	-9.93373
Topic	-9.93379
replaceAll	-9.93382
IL	-9.93424
▁12	-9.93521
▁parser	-9.93532
square	-9.93632
ile	-9.93651
Center	-9.9367
Close	-9.93684
Uuid	-9.93708
trip	-9.93932
Columns	-9.93996
▁u	-9.94094
▁right	-9.941
ling	-9.94104
Security	-9.94111
foo	-9.94124
▁finish	-9.94131
expr	-9.94143
"))))	-9.94143
spi	-9.94171
Trans	-9.94202
setColor	-9.94266
▁width	-9.94293
0),	-9.94313
▁write	-9.94315
▁report	-9.94319
handler	-9.94334
Piece	-9.9441
loc	-9.94455
getSource	-9.94484
lic	-9.94497
Distance	-9.94602
_3	-9.94603
▁adapter	-9.94648
lbl	-9.94708
Please	-9.9471
3);	-9.94823
vc	-9.94858
properties	-9.94869
("%	-9.94891
After	-9.94911
VERTICAL	-9.95011
nav	-9.95025
ya	-9.95043
▁job	-9.9515
Agent	-9.95215
reg	-9.95259
Debug	-9.95277
vert	-9.95279
business	-9.95312
Symbol	-9.95312
▁email	-9.95366
02	-9.95383
mobile	-9.95417
Section	-9.95418
68	-9.95572
lite	-9.95777
33	-9.9579
Ip	-9.95799
sw	-9.959
▁stmt	-9.95901
volume	-9.95902
getResource	-9.9591
67	-9.9592
Xml	-9.95953
▁was	-9.95963
▁ch	-9.96117
38	-9.96178
ActionPerformed	-9.96222
video	-9.96322
32	-9.96363
TABLE	-9.96397
cli	-9.96425
Drop	-9.96427
conf	-9.96472
42	-9.96477
keySet	-9.9648
Use	-9.96512
icon	-9.9652
fill	-9.96751
▁14	-9.96817
Timestamp	-9.96834
gu	-9.96861
34	-9.96861
03	-9.96876
JSONArray	-9.9692
segment	-9.96936
IllegalArgument	-9.96937
cycle	-9.96958
6,	-9.96959
Border	-9.9697
▁5)	-9.97023
lin	-9.97131
Objects	-9.97147
▁{}"	-9.97182
Single	-9.97446
thenReturn	-9.97448
mapping	-9.97451
ink	-9.97504
TextField	-9.97597
Rec	-9.97633
ium	-9.97702
▁have	-9.97754
▁gbc	-9.9777
▁40	-9.97797
notify	-9.97811
56	-9.97852
Axis	-9.97864
rec	-9.97935
buffer	-9.98038
▁application	-9.98198
▁team	-9.98239
Course	-9.98274
Execution	-9.98274
Import	-9.98284
200	-9.98297
▁change	-9.9835
="	-9.98408
asList	-9.98486
pref	-9.98528
resolve	-9.98533
▁fr	-9.98584
Insert	-9.98589
mat	-9.98606
HTTP	-9.9869
▁panel	-9.98728
our	-9.98735
Coord	-9.98799
Receiver	-9.98813
beans	-9.9883
▁stream	-9.9885
pw	-9.98865
ET	-9.98968
▁5	-9.98979
chart	-9.99055
flag	-9.99058
47	-9.99227
▁stop	-9.9925
DateTime	-9.99265
ES	-9.99296
configuration	-9.9939
So	-9.99394
▁++	-9.99402
▁document	-9.99405
extension	-9.99422
▁can	-9.99462
pack	-9.99504
ResultSet	-9.99534
IR	-9.99535
EL	-9.99546
Events	-9.99569
ore	-9.99579
setHorizontal	-9.99616
Summary	-9.99632
Write	-9.9968
▁frame	-9.99709
ica	-9.99713
29	-9.9976
fire	-9.9981
ware	-9.99832
Comp	-9.99936
▁results	-10
sender	-10.0002
▁by	-10.0006
ext	-10.001
▁level	-10.0015
START	-10.0016
gra	-10.0018
word	-10.0035
Refresh	-10.0037
enable	-10.0042
▁mntm	-10.0042
ah	-10.0065
ALL	-10.0068
Suppress	-10.0069
ng	-10.007
35	-10.0081
Fill	-10.0081
Elements	-10.0091
This	-10.0091
ler	-10.0091
AD	-10.0114
mili	-10.012
▁day	-10.013
Non	-10.0132
reparedStatement	-10.0133
ton	-10.0138
Found	-10.0142
setGravity	-10.015
▁code	-10.0151
og	-10.0162
jboss	-10.0165
Sensor	-10.0165
Scanner	-10.0165
▁uri	-10.0168
Warnings	-10.017
Argument	-10.0171
ResContactInfo	-10.0176
Chart	-10.0176
ung	-10.0181
Light	-10.0201
Arguments	-10.0202
rank	-10.0207
rp	-10.0214
▁->	-10.0216
ItemSelected	-10.0216
brick	-10.0221
su	-10.0225
11.	-10.0228
Pa	-10.0229
inflate	-10.023
validation	-10.0238
izer	-10.0247
property	-10.0256
ong	-10.0265
Sign	-10.0268
&	-10.0273
preference	-10.0275
div	-10.0279
Scene	-10.0294
Movie	-10.0294
90	-10.0296
▁char	-10.0299
Split	-10.0304
▁host	-10.0305
Constant	-10.0309
▁"/")	-10.0319
▁sp	-10.0322
▁generate	-10.0324
zip	-10.0324
Hand	-10.0324
Tool	-10.0329
cast	-10.0335
[0]);	-10.0339
idx	-10.0363
Batch	-10.0371
nextInt	-10.0375
Hash	-10.0375
consume	-10.0392
ji	-10.0393
accept	-10.0394
return	-10.0397
ChangeListener	-10.0402
sk	-10.0412
nu	-10.042
att	-10.0429
GET	-10.0434
getNode	-10.0436
openqa	-10.0437
helpers	-10.044
Preferences	-10.0451
▁uk	-10.0454
ron	-10.0457
course	-10.0459
ack	-10.046
Prefix	-10.046
Checker	-10.0461
Timeout	-10.047
ail	-10.0471
▁select	-10.0477
mContext	-10.0477
VERSION	-10.0481
Loc	-10.0498
SequentialGroup	-10.0503
▁channel	-10.0505
mob	-10.0508
Support	-10.0509
INT	-10.0517
Ver	-10.0535
Mapper	-10.0536
sum	-10.0538
TestCase	-10.0546
Segment	-10.0547
liferay	-10.0548
description	-10.0549
Span	-10.055
Draw	-10.055
Domain	-10.0551
▁fragment	-10.0556
alt	-10.0558
Operator	-10.0559
DI	-10.0565
shape	-10.0569
parseDouble	-10.0569
Arg	-10.058
train	-10.0581
Interval	-10.0582
89	-10.0587
Composite	-10.0592
Flags	-10.0595
mis	-10.0596
city	-10.0597
CODE	-10.0603
collection	-10.062
StringUtil	-10.0624
RecyclerView	-10.0625
Robot	-10.0626
Information	-10.0631
gp	-10.0634
Comment	-10.0636
DEBUG	-10.0637
▁where	-10.0641
Alert	-10.0646
template	-10.0653
screen	-10.0653
TIME	-10.0655
Memory	-10.0659
((((((	-10.0662
policy	-10.0671
Sheet	-10.0671
activities	-10.0671
▁inflater	-10.0671
Join	-10.0676
ENT	-10.0676
Relation	-10.0683
pop	-10.0688
8,	-10.0689
SEPARATOR	-10.0693
fm	-10.0702
Issue	-10.0706
MENT	-10.071
thing	-10.0714
RO	-10.0715
cms	-10.0717
59	-10.0723
roll	-10.0725
Drawer	-10.0731
Air	-10.0735
04	-10.074
tri	-10.0743
▁sender	-10.0749
vector	-10.0751
self	-10.0753
▁bg	-10.0764
Machine	-10.0773
getAbsolutePath	-10.0773
addAttribute	-10.0778
track	-10.0779
panel	-10.0779
▁progress	-10.0782
ActionBar	-10.0788
SC	-10.0799
ViewGroup	-10.0804
lv	-10.0815
Abilities	-10.0818
▁junit	-10.0822
merge	-10.0827
Logic	-10.0827
border	-10.0835
style	-10.0836
scale	-10.0838
listener	-10.0839
force	-10.0842
Site	-10.0846
setSelected	-10.0856
hash	-10.0859
▁tr	-10.0863
amp	-10.0863
Print	-10.0869
Void	-10.0877
UTF	-10.0884
Pass	-10.0886
ick	-10.0891
Wifi	-10.0899
son	-10.09
bound	-10.0902
▁account	-10.0906
Fire	-10.0906
Prop	-10.0908
Environment	-10.091
FragmentManager	-10.0914
DATE	-10.0914
Texture	-10.0918
har	-10.0922
45	-10.0927
201	-10.0929
ifier	-10.093
px	-10.0932
modules	-10.0933
proxy	-10.0936
ug	-10.0943
Swing	-10.0946
TH	-10.0953
mgt	-10.0957
connector	-10.0957
▁transaction	-10.0963
sb	-10.0967
CA	-10.097
JTextField	-10.0973
▁which	-10.0976
--;	-10.0981
chi	-10.0983
Visible	-10.0984
Limit	-10.0992
▁failed	-10.0992
browser	-10.0996
fied	-10.0997
▁close	-10.0999
timestamp	-10.1003
▁editor	-10.1007
Bounds	-10.1007
Paint	-10.1016
CE	-10.1022
xtext	-10.1023
Idx	-10.1024
uuid	-10.1024
▁open	-10.1026
Locale	-10.1027
loader	-10.1028
material	-10.1033
movie	-10.1034
▁prop	-10.1039
Render	-10.104
Monitor	-10.105
Setting	-10.1055
66	-10.1062
PER	-10.1063
Converter	-10.1072
Mask	-10.1079
gamebo	-10.1087
PanelLayout	-10.1088
big	-10.1088
86	-10.1092
Face	-10.1092
▁255	-10.1096
AdapterView	-10.11
▁jPanel	-10.11
07	-10.11
▁username	-10.11
External	-10.1109
31	-10.1112
▁WHERE	-10.1114
inf	-10.1116
scan	-10.1117
feature	-10.1119
offset	-10.112
category	-10.1126
'))	-10.1127
getBlock	-10.1133
▁execute	-10.1143
Chain	-10.1144
▁port	-10.1167
edge	-10.118
CONTENT	-10.118
▁valid	-10.118
KeyEvent	-10.1184
▁files	-10.1187
Stage	-10.1194
cn	-10.1203
IF	-10.1209
▁link	-10.1216
Qty	-10.1218
cancel	-10.1224
health	-10.1227
py	-10.1235
▁one	-10.1243
▁array	-10.1248
▁"-	-10.1255
▁tab	-10.1257
Answer	-10.126
dismiss	-10.1263
semantic	-10.1263
▁room	-10.1265
expected	-10.1265
cu	-10.1272
chunk	-10.1275
SimpleDateFormat	-10.1287
▁onFinish	-10.129
BO	-10.1291
getSelected	-10.1291
pad	-10.1296
lng	-10.1297
ible	-10.1297
mods	-10.1299
hibernate	-10.13
▁address	-10.131
Picture	-10.1323
req	-10.1327
▁9	-10.1328
▁req	-10.134
readLine	-10.1344
full	-10.135
struct	-10.1355
7,	-10.1358
▁100)	-10.1372
rd	-10.1378
rdf	-10.1385
views	-10.1388
cam	-10.139
condition	-10.1396
95	-10.1407
Cards	-10.1407
Browser	-10.1423
fix	-10.1424
elasticsearch	-10.1432
AM	-10.1433
hl	-10.1434
Sort	-10.1435
]))	-10.1436
▁graph	-10.145
ViewHolder	-10.1451
▁25	-10.1451
tc	-10.1452
ParseException	-10.1456
travel	-10.1458
▁use	-10.1464
bin	-10.1467
getChildren	-10.1468
STATUS	-10.1469
EXTRA	-10.1472
ByteArray	-10.1473
rm	-10.1477
Primary	-10.1481
Mouse	-10.1483
SP	-10.1484
decode	-10.1485
▁us	-10.1486
patient	-10.1493
Protocol	-10.1494
trans	-10.15
46	-10.1505
opt	-10.1519
atom	-10.1521
processor	-10.1524
rad	-10.1527
REQUEST	-10.153
Reg	-10.153
Blocks	-10.1537
lf	-10.1537
Before	-10.1542
che	-10.1546
items	-10.1547
axis	-10.1548
testng	-10.1559
▁"\"	-10.156
ght	-10.1568
less	-10.1574
▁FROM	-10.1575
matrix	-10.1579
RIGHT	-10.1583
ow	-10.1589
▁vm	-10.159
Actor	-10.1592
Executor	-10.1592
▁prefs	-10.1601
drop	-10.1604
▁http	-10.1605
company	-10.1606
Remove	-10.1608
▁curr	-10.1613
Photo	-10.1617
tp	-10.1619
boolean	-10.1622
EX	-10.1626
Alarm	-10.163
▁function	-10.1638
Colour	-10.1642
controllers	-10.1644
▁string	-10.1644
Connector	-10.1645
Username	-10.165
hp	-10.1654
],	-10.1658
Author	-10.1662
Pref	-10.1666
putInt	-10.1669
ION	-10.1669
informati	-10.1675
▁step	-10.1684
(1))	-10.1685
schedule	-10.1687
success	-10.1703
4);	-10.1704
fractal	-10.1704
TER	-10.1712
06	-10.1712
alibaba	-10.1716
argument	-10.1716
composite	-10.1716
▁var	-10.1717
getContent	-10.1718
Servlet	-10.1721
Created	-10.1723
hy	-10.1728
span	-10.173
▁score	-10.1732
▁stringBuilder	-10.1733
MI	-10.1736
MP	-10.1736
El	-10.1741
used	-10.1743
validate	-10.1745
gc	-10.1756
76	-10.1766
[0];	-10.1767
CountDownTimer	-10.1779
Navigation	-10.1779
Im	-10.1779
invoke	-10.178
▁access	-10.1781
▁onTick	-10.1782
plus	-10.1784
▁work	-10.1788
fragments	-10.1802
LayoutInflater	-10.1804
Turn	-10.1808
Red	-10.1811
ave	-10.1811
TE	-10.1813
Virtual	-10.1817
counter	-10.1819
sm	-10.1821
▁ca	-10.1824
ou	-10.1824
Runtime	-10.1828
▁volume	-10.1832
}")	-10.1836
rk	-10.1837
hbase	-10.1837
agg	-10.1838
handle	-10.184
reader	-10.1854
SERVICE	-10.1855
compute	-10.186
mit	-10.186
▁flags	-10.1863
▁insert	-10.1867
stage	-10.1876
nl	-10.1878
Matcher	-10.1888
ATE	-10.1895
Attr	-10.1909
HE	-10.1912
results	-10.1916
▁16	-10.1918
Plus	-10.1919
SA	-10.1931
PATH	-10.1932
▁callback	-10.1937
getPath	-10.1941
ven	-10.1942
uck	-10.1943
getAction	-10.195
mapper	-10.1955
EM	-10.1962
xquery	-10.197
43	-10.1971
ish	-10.1971
angle	-10.1974
▁exception	-10.1982
weather	-10.1983
sec	-10.1985
Tags	-10.199
Head	-10.1993
Ro	-10.1993
Loading	-10.1997
function	-10.2001
nc	-10.2003
Owner	-10.2006
js	-10.2024
getStatus	-10.2031
ich	-10.2032
(1500	-10.2033
cha	-10.2034
monitor	-10.2034
generator	-10.2035
PS	-10.2038
getColumn	-10.2044
▁split	-10.2045
Structure	-10.2047
▁-=	-10.205
▁body	-10.2054
Init	-10.2065
("[	-10.2069
verse	-10.2071
sensor	-10.2073
><	-10.2073
ture	-10.2078
63	-10.2094
getC	-10.2096
UR	-10.2096
Available	-10.2099
identifier	-10.2099
getImage	-10.21
▁val	-10.2101
xuc	-10.2109
bai	-10.2116
▁stack	-10.2118
Loop	-10.2119
Materials	-10.2125
69	-10.2126
((-	-10.2126
getLast	-10.2126
compile	-10.2127
water	-10.2128
Utility	-10.2129
bundle	-10.2131
power	-10.2139
eq	-10.2147
DF	-10.2148
Side	-10.2159
thread	-10.2168
Cancel	-10.2169
▁0));	-10.2171
Separator	-10.2178
Initial	-10.2178
Proxy	-10.2178
render	-10.2187
▁Left	-10.2189
Copy	-10.2191
▁parameters	-10.2194
DS	-10.2197
▁world	-10.2208
▁point	-10.2209
CR	-10.2211
cut	-10.2217
getSelectedItem	-10.2217
Subject	-10.2217
▁"/20")	-10.2244
44	-10.2244
("-	-10.2245
ite	-10.2245
PL	-10.2247
detail	-10.2248
Picker	-10.2252
87	-10.2252
ever	-10.2254
black	-10.2258
(0));	-10.2259
NONE	-10.2262
leg	-10.2266
▁(-1)	-10.2273
setError	-10.2273
Can	-10.2275
wifi	-10.2277
DAY	-10.2278
Stock	-10.2283
variable	-10.2283
PA	-10.2284
WindowManager	-10.2291
▁statement	-10.2293
▁1000))	-10.2301
calculator	-10.231
Exit	-10.2311
ara	-10.2317
Bus	-10.2327
POST	-10.2327
▁settings	-10.2329
Song	-10.2329
▁draw	-10.2331
MessageDialog	-10.2334
ous	-10.2338
▁"")	-10.2339
gi	-10.2343
▁grid	-10.2348
Async	-10.235
▁pstmt	-10.2352
getP	-10.2357
ping	-10.2357
jp	-10.2364
kr	-10.2367
▁are	-10.2369
pass	-10.2373
que	-10.2375
bet	-10.2375
Customer	-10.2377
Lo	-10.2378
sys	-10.2383
putString	-10.2383
Cmd	-10.2393
tt	-10.2393
▁board	-10.2412
direct	-10.2413
Metrics	-10.2414
hide	-10.2424
TA	-10.2425
nAnswer	-10.2426
trade	-10.243
▁layout	-10.2432
57	-10.2434
Scan	-10.2436
Com	-10.2436
5);	-10.2438
psi	-10.2447
dx	-10.2453
Literal	-10.2457
setContent	-10.2458
package	-10.247
72	-10.2471
payment	-10.2472
1),	-10.2473
▁attribute	-10.2474
Pr	-10.2477
setBounds	-10.2478
08	-10.2478
▁activity	-10.2479
progress	-10.2482
Has	-10.2484
facebook	-10.2485
reset	-10.2486
▁op	-10.2487
two	-10.2493
pair	-10.2498
70	-10.251
ring	-10.2513
Future	-10.2524
OT	-10.2527
09	-10.2527
isValid	-10.2528
▁ref	-10.2546
▁when	-10.2549
States	-10.2552
Patient	-10.2565
cd	-10.257
wi	-10.2577
53	-10.2587
turn	-10.259
2));	-10.2593
▁mili	-10.2595
getJSONObject	-10.26
rel	-10.2601
download	-10.2602
▁":	-10.2605
Destination	-10.2606
LinkedList	-10.2606
jdt	-10.2612
Img	-10.2617
repo	-10.2618
37	-10.2624
▁so	-10.2632
SO	-10.2634
▁AND	-10.2637
realm	-10.264
Failure	-10.2644
()))))	-10.2645
join	-10.2646
arr	-10.2648
author	-10.2652
MouseEvent	-10.2653
OS	-10.2655
messages	-10.2659
case	-10.266
EMPTY	-10.2661
aw	-10.2663
Arr	-10.2664
tec	-10.2667
getCell	-10.2668
med	-10.267
photo	-10.2675
▁(((((	-10.2678
▁pre	-10.2679
'>	-10.2681
tory	-10.2689
{}	-10.2697
visit	-10.2698
super	-10.27
Paths	-10.2705
vis	-10.2707
94	-10.2707
slot	-10.2708
parameter	-10.2709
empty	-10.2711
getTitle	-10.2714
AP	-10.2718
options	-10.2721
sch	-10.2723
▁before	-10.2729
ony	-10.2731
Sound	-10.2731
▁fileName	-10.2731
pms	-10.2736
▁src	-10.275
▁buf	-10.2754
COL	-10.2754
▁other	-10.2757
▁S	-10.2762
emf	-10.2775
Qu	-10.2792
prefix	-10.2794
ONE	-10.2809
[0],	-10.2811
INFO	-10.2812
05	-10.2819
Angle	-10.2828
▁your	-10.2833
getSize	-10.2833
▁form	-10.2836
AND	-10.2853
Other	-10.2856
Raw	-10.2856
Runner	-10.2857
Pixel	-10.2866
▁'"	-10.2868
/"	-10.287
▁dir	-10.2871
ls	-10.2872
READ	-10.2872
▁listener	-10.2873
96	-10.2876
▁login	-10.2881
Zone	-10.2882
OP	-10.2883
60,	-10.2884
MobHunting	-10.2884
Binary	-10.2884
bridge	-10.2887
star	-10.2891
Placement	-10.29
ise	-10.2902
ari	-10.2906
definition	-10.2912
orm	-10.2912
dm	-10.2916
Only	-10.2923
rain	-10.2926
UPDATE	-10.2927
▁pass	-10.2929
Shape	-10.2929
▁1)))	-10.2932
Cl	-10.2932
Balance	-10.294
MIN	-10.2945
dia	-10.2953
fml	-10.296
jPanel	-10.2965
(1).	-10.2965
Library	-10.2969
shell	-10.2971
identity	-10.2972
Received	-10.2974
▁enter	-10.2975
Consumer	-10.2975
▁instance	-10.2977
MSG	-10.2982
Water	-10.2983
tests	-10.2988
getPosition	-10.2993
\",	-10.2998
prepare	-10.2998
2))	-10.3
cf	-10.3001
:%	-10.3005
executeQuery	-10.3012
Toolbar	-10.3012
85	-10.3013
rules	-10.3017
poi	-10.3023
Kind	-10.3029
notification	-10.3033
attr	-10.3034
Standard	-10.3037
Selector	-10.3037
smi	-10.3038
ById	-10.3044
tick	-10.3047
idbi	-10.3048
▁pro	-10.305
release	-10.3055
skip	-10.3057
securityContext	-10.3058
:")	-10.3058
97	-10.3058
▁active	-10.3058
71	-10.3059
character	-10.3068
▁layoutelement	-10.307
ByName	-10.307
kill	-10.3071
clone	-10.3082
▁24	-10.3098
cmd	-10.3099
▁xml	-10.3105
sFor	-10.3109
Exists	-10.3112
loop	-10.3113
origin	-10.3113
member	-10.3116
press	-10.3132
[1])	-10.3133
▁delta	-10.3139
compareTo	-10.314
▁print	-10.3143
den	-10.3145
Clicked	-10.3145
▁edge	-10.315
FilePath	-10.315
PRO	-10.3151
scope	-10.3155
Payment	-10.3155
Bound	-10.3156
ContainerGap	-10.3158
Const	-10.3164
utilities	-10.3165
ticket	-10.317
▁random	-10.3175
cart	-10.318
bu	-10.3184
getLogger	-10.3185
coord	-10.3187
life	-10.319
Origin	-10.3192
STRING	-10.3198
cho	-10.3202
gt	-10.3204
DM	-10.3204
neo	-10.3206
▁"0"	-10.3211
Resources	-10.3221
▁2);	-10.3221
entrySet	-10.3231
Series	-10.3242
Wait	-10.3243
ification	-10.325
ServiceTest	-10.3251
comm	-10.3254
second	-10.3255
CS	-10.3256
range	-10.3259
pane	-10.3263
findBy	-10.3265
swagger	-10.3271
jdbc	-10.3272
ado	-10.3272
designer	-10.3282
alarm	-10.3284
couchbase	-10.3286
getFile	-10.3291
fast	-10.3294
▁canvas	-10.3306
mes	-10.3314
pay	-10.3314
single	-10.3318
[][]	-10.3318
▁that	-10.3319
▁tree	-10.3323
▁notification	-10.3326
▁tile	-10.3329
Compiler	-10.3335
▁exc	-10.3336
score	-10.3339
fetch	-10.3344
Usage	-10.3345
wa	-10.3345
friend	-10.3345
amount	-10.3345
calc	-10.3346
ora	-10.335
}"	-10.3354
ann	-10.3355
queue	-10.336
land	-10.3363
tiles	-10.3363
▁3;	-10.3363
rootView	-10.3363
▁cluster	-10.3364
▁userId	-10.3364
ball	-10.3371
lon	-10.3372
Mail	-10.3373
ics	-10.3374
▁part	-10.3378
▁properties	-10.338
place	-10.3388
lucene	-10.3389
submit	-10.3397
burg	-10.34
virtual	-10.3404
getChild	-10.341
<?	-10.3414
▁img	-10.3419
(3,	-10.3423
("\\	-10.3424
jackson	-10.3433
CharSequence	-10.3435
RB	-10.3436
Weather	-10.3448
Damage	-10.3448
Round	-10.3449
Snapshot	-10.345
walk	-10.3451
("")))	-10.3454
Generated	-10.3456
78	-10.3468
[1]);	-10.347
flush	-10.3478
▁mimeTypes	-10.3478
stock	-10.3479
rotate	-10.3479
kind	-10.3485
▁category	-10.3487
ExportManager	-10.349
hand	-10.3491
Permissions	-10.3496
Gene	-10.3502
stat	-10.3502
tic	-10.3508
recipe	-10.3508
Ticket	-10.351
share	-10.3517
84	-10.3517
++	-10.3518
encode	-10.352
Analysis	-10.3523
Terminal	-10.3523
inner	-10.3534
STEAD	-10.3538
tm	-10.3541
LEFT	-10.3553
breakpoint	-10.3554
cards	-10.3561
mCurrent	-10.3563
▁version	-10.357
▁bundle	-10.3576
mini	-10.3585
pool	-10.3588
▁second	-10.3592
▁register	-10.3593
CL	-10.3594
Done	-10.3597
Modifier	-10.3599
▁validate	-10.3605
▁13	-10.3607
▁back	-10.3613
Generic	-10.3614
98	-10.3615
setString	-10.362
shi	-10.3621
ating	-10.3623
▁parameter	-10.3625
cons	-10.3629
▁book	-10.3634
▁gr	-10.3641
Chunk	-10.3644
stone	-10.3647
Users	-10.365
ged	-10.365
RA	-10.3651
iot	-10.3653
▁media	-10.3654
▁description	-10.3657
software	-10.366
▁format	-10.366
hen	-10.3664
▁card	-10.3665
Commands	-10.3674
person	-10.3682
Utilities	-10.3683
actions	-10.3689
ask	-10.3689
▁meta	-10.3715
▁member	-10.3715
▁ad	-10.3719
background	-10.372
microsoft	-10.372
limit	-10.3724
setProperty	-10.3732
upload	-10.3733
▁trans	-10.3734
Tracker	-10.3738
gd	-10.3739
frei	-10.3741
City	-10.3742
fu	-10.3747
ignore	-10.3751
Soft	-10.3752
relation	-10.3754
enc	-10.3764
TEST	-10.3765
\":	-10.3766
Tuple	-10.3766
feed	-10.3768
ArrayAdapter	-10.377
▁",")	-10.3771
remote	-10.3773
[1]))	-10.378
take	-10.3781
ultimate	-10.3782
getEntity	-10.3782
▁loc	-10.3783
Workflow	-10.3783
GRAY	-10.3784
400	-10.3785
hero	-10.3786
JMenuItem	-10.3794
hudson	-10.3797
79	-10.3801
▁attr	-10.3803
getSession	-10.3804
▁property	-10.3805
NE	-10.3812
toggle	-10.3812
▁exp	-10.3815
Tri	-10.3817
▁fi	-10.3818
classes	-10.3818
▁8)	-10.3822
JSONException	-10.3823
machine	-10.3825
CREATE	-10.3828
operator	-10.3828
Net	-10.3834
contact	-10.3836
Ui	-10.3837
mandelbrot	-10.3843
student	-10.3843
Padding	-10.3846
▁actual	-10.3848
vertex	-10.3848
Stat	-10.3857
▁mock	-10.3858
registration	-10.3859
ray	-10.3867
transport	-10.3869
OC	-10.3874
green	-10.3875
console	-10.3875
setMessage	-10.3875
77	-10.3879
Pressed	-10.3882
BE	-10.389
migration	-10.389
81	-10.3893
▁amount	-10.3896
gov	-10.3901
FIELD	-10.3905
article	-10.3908
tenant	-10.3909
83	-10.3911
▁testOne	-10.3913
muses	-10.3922
jxl	-10.3925
jLabel	-10.393
Preview	-10.3935
▁2,	-10.3936
COM	-10.3942
getBytes	-10.3943
details	-10.3947
ana	-10.3952
Could	-10.3952
station	-10.3952
wrapper	-10.3969
inst	-10.397
)++)]	-10.397
Realm	-10.397
Headers	-10.397
holder	-10.3971
ADD	-10.3974
Atom	-10.3978
JS	-10.398
fail	-10.3981
gg	-10.3982
Normal	-10.3984
analyzer	-10.3989
win	-10.3994
rect	-10.3999
setForeground	-10.4022
Acc	-10.4022
sip	-10.403
gar	-10.4033
▁must	-10.4037
lip	-10.4038
mac	-10.4041
occi	-10.4042
tax	-10.4047
variant	-10.4047
toArray	-10.4048
switch	-10.4049
cross	-10.405
Enter	-10.405
dataset	-10.4051
Rows	-10.4054
men	-10.4061
DOWN	-10.4063
high	-10.4063
translate	-10.4065
anim	-10.4067
tb	-10.4069
ender	-10.4069
OM	-10.407
bat	-10.4075
ada	-10.4077
SeekBar	-10.4078
receive	-10.4082
Delay	-10.4084
0;	-10.4094
geometry	-10.4094
Registration	-10.4094
ML	-10.41
▁handler	-10.4108
Actions	-10.4109
Polygon	-10.411
Assertions	-10.4111
PORT	-10.4113
ness	-10.4116
Parts	-10.4124
Authentication	-10.4126
Observer	-10.4126
zoom	-10.4127
Man	-10.4131
watch	-10.4142
Orientation	-10.4143
ind	-10.4144
▁ms	-10.4145
((((((("	-10.4153
MetaData	-10.4161
commands	-10.4161
jjt	-10.4163
nn	-10.4164
Connect	-10.4165
▁df	-10.4169
NEW	-10.4169
area	-10.4174
oracle	-10.4174
SH	-10.4176
are	-10.4176
▁mode	-10.4186
58	-10.4192
cont	-10.4197
▁bike	-10.4198
running	-10.4204
Student	-10.4206
tracker	-10.421
enums	-10.4226
LayoutStyle	-10.4233
seedu	-10.4235
channels	-10.4243
[0]))	-10.4244
getConfig	-10.4245
pu	-10.4248
lp	-10.4248
points	-10.425
Stmt	-10.4255
TextUtils	-10.4268
Sum	-10.4269
jjnewStateCnt	-10.4271
reference	-10.4273
speed	-10.4274
ace	-10.4281
Canvas	-10.4287
cos	-10.4289
Firebase	-10.429
tasks	-10.4291
▁M	-10.4293
▁previous	-10.4297
addPreferred	-10.4307
▁empty	-10.431
((-1)	-10.4319
Modified	-10.4319
alpha	-10.432
PG	-10.4327
addView	-10.4328
UT	-10.4335
bluetooth	-10.4335
▁jjstateSet	-10.4335
problem	-10.4336
Optional	-10.4336
Minute	-10.4336
ole	-10.4337
((!(	-10.434
Diff	-10.4342
Clause	-10.4352
gooru	-10.4352
assign	-10.4353
SM	-10.4357
▁prev	-10.4363
Operations	-10.4368
Super	-10.4369
AB	-10.4373
Static	-10.4375
ContentPane	-10.4378
Transition	-10.4378
▁success	-10.4383
Health	-10.4384
▁storage	-10.4387
jar	-10.4388
QU	-10.439
▁original	-10.4393
backend	-10.4395
plot	-10.4396
EVENT	-10.4397
▁cn	-10.4397
catalog	-10.44
Rank	-10.4401
found	-10.4409
Star	-10.441
hit	-10.441
cordova	-10.4417
ttpURLConnection	-10.4419
Methods	-10.442
Ext	-10.4422
pic	-10.4423
netty	-10.4424
lap	-10.4432
clazz	-10.4434
ord	-10.444
len	-10.4443
High	-10.4451
Lat	-10.4451
Opt	-10.4455
Days	-10.446
▁jjCheckNAdd	-10.4466
clean	-10.4467
Compute	-10.4471
▁top	-10.4473
RequestMapping	-10.4476
setType	-10.448
meter	-10.4481
piece	-10.4483
ao	-10.4494
setId	-10.4501
Processing	-10.4509
Factor	-10.4509
inc	-10.4513
region	-10.4515
[4]	-10.4515
throne	-10.4516
where	-10.4516
Delta	-10.4517
just	-10.4518
▁<<	-10.4518
Running	-10.4518
refresh	-10.4527
▁T	-10.4533
Sql	-10.4538
desc	-10.4539
Feed	-10.4542
scheduler	-10.4543
Tra	-10.4545
Trigger	-10.4549
faster	-10.455
dialogue	-10.4552
▁after	-10.4552
▁nl	-10.4555
Groups	-10.4557
▁4;	-10.4559
Go	-10.4565
Subscription	-10.4566
history	-10.4566
▁32	-10.4567
▁cmd	-10.4575
ox	-10.458
Buttons	-10.4584
▁will	-10.4587
getElement	-10.4588
fab	-10.4588
150	-10.4594
lilit	-10.46
prepareStatement	-10.46
▁alert	-10.4605
owner	-10.4607
import	-10.4607
operation	-10.4608
JsonObject	-10.4612
▁":")	-10.4622
wall	-10.4627
workflow	-10.4627
battle	-10.4633
CheckBox	-10.4635
unc	-10.4641
001	-10.4645
ident	-10.4647
Snackbar	-10.465
symbol	-10.465
9,	-10.465
window	-10.4652
▁does	-10.4653
Hour	-10.4656
prev	-10.4657
Classes	-10.4661
enemy	-10.4667
SD	-10.4667
got	-10.4668
endsWith	-10.47
LL	-10.471
hardware	-10.4717
binary	-10.4718
guard	-10.4718
textField	-10.472
Train	-10.4721
renderer	-10.4721
Coordinate	-10.4724
ward	-10.4732
General	-10.4734
ITY	-10.4735
▁contact	-10.4737
mic	-10.474
Native	-10.4751
csv	-10.4755
setTextColor	-10.476
▁filename	-10.4762
UM	-10.4763
Share	-10.4767
oss	-10.4773
▁comment	-10.4782
Ta	-10.4787
cfg	-10.4799
▁extends	-10.4802
Ulti	-10.4802
Hit	-10.4802
Fail	-10.4804
Visibility	-10.4808
ran	-10.4811
processing	-10.4813
▁10,	-10.4818
peer	-10.4834
Master	-10.4836
Decl	-10.4836
Cloud	-10.4853
install	-10.4855
research	-10.4857
▁timer	-10.4858
ScrollPane	-10.4859
Tick	-10.487
Radius	-10.487
Millis	-10.4873
EP	-10.4874
novo	-10.4879
Obs	-10.488
Quantity	-10.4887
Alpha	-10.4887
▁5;	-10.4888
apps	-10.4893
getRequest	-10.49
socket	-10.4904
NUMBER	-10.4905
ras	-10.4905
Problem	-10.4908
Mark	-10.4913
Pointer	-10.4922
Drag	-10.4925
fc	-10.4927
getState	-10.4929
getNext	-10.493
1;	-10.4934
VIEW	-10.4939
claim	-10.494
▁17	-10.4941
rb	-10.4947
▁component	-10.4947
ure	-10.4956
Low	-10.4956
Images	-10.4957
MotionEvent	-10.4958
PARENT	-10.4959
haus	-10.4971
Services	-10.4973
setIcon	-10.4979
calendar	-10.4979
setChecked	-10.4984
appendChild	-10.4991
Sales	-10.4992
rl	-10.4994
Partition	-10.5009
music	-10.5016
▁pattern	-10.5018
getSelection	-10.5019
spark	-10.502
systemTray	-10.5026
▁plugin	-10.5029
▁0.5	-10.5037
attributes	-10.5042
ding	-10.5045
asset	-10.5049
audio	-10.5051
VS	-10.5051
algorithm	-10.5056
Props	-10.5056
Buf	-10.5057
rie	-10.506
▁controller	-10.506
Spawn	-10.5061
quantity	-10.5062
writer	-10.5062
Merge	-10.5064
▁refresh	-10.5067
▁20)	-10.5069
▁jButton	-10.5072
Statistics	-10.5078
short	-10.5083
solution	-10.5084
rn	-10.5093
Final	-10.5096
▁now	-10.5104
assertNotNull	-10.5109
Trade	-10.5109
utility	-10.5113
▁A	-10.5113
Week	-10.5114
drawer	-10.5115
▁cache	-10.5117
getColumnIndex	-10.512
Constraint	-10.5125
Broadcast	-10.5131
Free	-10.5133
▁profile	-10.5135
redirect	-10.5139
weight	-10.5146
Bluetooth	-10.5149
reddit	-10.5149
basic	-10.515
Gui	-10.5159
Lines	-10.5162
CB	-10.5164
Indicator	-10.5166
druid	-10.5167
slide	-10.5171
ssl	-10.5172
▁export	-10.5178
park	-10.5182
▁ru	-10.5184
Validator	-10.5187
curChar	-10.519
NumberFormat	-10.5191
iter	-10.5196
▁operation	-10.5198
pending	-10.5202
spawn	-10.5203
vision	-10.5203
consumer	-10.5208
▁dest	-10.5208
issue	-10.5218
standard	-10.5225
Lib	-10.5249
toolbar	-10.5252
▁5,	-10.5253
Declaration	-10.5255
Install	-10.5255
imp	-10.5256
shop	-10.5265
ease	-10.5268
serv	-10.5272
Follow	-10.5273
Capture	-10.5273
bitmap	-10.5279
▁required	-10.5296
▁metadata	-10.5297
cept	-10.5298
king	-10.5303
artifact	-10.5309
Updated	-10.5314
proto	-10.5318
quest	-10.5323
perform	-10.5324
></	-10.5325
spot	-10.5326
Signature	-10.5327
jenkins	-10.5327
Priority	-10.5327
vel	-10.5328
cert	-10.533
It	-10.5331
ME	-10.5334
SI	-10.5336
warning	-10.5339
mission	-10.5343
WHITE	-10.5345
Effect	-10.5349
fo	-10.5349
tw	-10.535
▁pw	-10.5351
Tasks	-10.5352
▁resp	-10.5358
try	-10.5359
▁cal	-10.5365
codegen	-10.5381
Contain	-10.5382
▁23	-10.5383
Lang	-10.5385
Sha	-10.5387
getConnection	-10.5388
times	-10.539
Decision	-10.5399
stanford	-10.5399
topic	-10.5399
ClickListener	-10.5401
RequestMethod	-10.5408
pot	-10.5411
93	-10.5411
Bot	-10.5412
Assign	-10.5413
equal	-10.5417
seq	-10.5419
lee	-10.5419
mul	-10.5424
ABLE	-10.5424
integration	-10.5435
learn	-10.5436
IVE	-10.5436
some	-10.5441
Identity	-10.5443
2)));	-10.5445
Po	-10.5451
INSTANCE	-10.5453
▁option	-10.5464
OUT	-10.5465
▁person	-10.5466
launcher	-10.5466
300	-10.5469
ln	-10.5471
COUNT	-10.5471
Cancelled	-10.5472
Statistic	-10.5472
AC	-10.5472
unified	-10.5473
popup	-10.5476
▁users	-10.548
mine	-10.5481
MediaPlayer	-10.5482
▁7)	-10.5487
APP	-10.5489
publish	-10.549
forward	-10.549
easy	-10.5491
Endpoint	-10.5493
setBorder	-10.5506
▁compare	-10.5509
Real	-10.5511
Based	-10.5517
serializer	-10.5524
pg	-10.5525
ending	-10.5526
Entries	-10.5527
Android	-10.5527
correctAnswer	-10.5527
Phase	-10.5528
partition	-10.5532
(255	-10.5534
8);	-10.5539
program	-10.5548
FF	-10.5553
aa	-10.5561
▁"</	-10.5562
execution	-10.5563
LOAD	-10.5563
xception	-10.5568
obs	-10.5578
Tokens	-10.5579
af	-10.5584
ense	-10.5585
newLine	-10.5588
▁region	-10.5589
▁startTime	-10.5595
AI	-10.5596
Second	-10.56
74	-10.5601
Find	-10.5602
distance	-10.5605
price	-10.5607
rows	-10.562
Receive	-10.5626
▁up	-10.5629
OB	-10.5631
real	-10.5632
2;	-10.5632
Branch	-10.5637
yyyy	-10.5637
sequence	-10.5642
bottom	-10.5642
pan	-10.5645
▁setup	-10.5652
Checked	-10.5655
market	-10.5658
▁visit	-10.5658
DIS	-10.5659
NonNull	-10.5661
▁configuration	-10.5661
droid	-10.5661
TION	-10.5664
61	-10.5666
UserName	-10.567
vol	-10.5671
getMax	-10.5671
option	-10.5675
interfaces	-10.5681
nlp	-10.5686
XY	-10.5686
▁already	-10.5693
transfer	-10.5693
tues	-10.5695
ram	-10.5695
92	-10.5696
setInt	-10.57
minute	-10.5701
ClassName	-10.5703
Hi	-10.5703
▁template	-10.5704
pull	-10.5705
sure	-10.5709
(1));	-10.5711
Margin	-10.5712
focus	-10.5712
joda	-10.5716
packet	-10.5722
Cur	-10.573
Primitive	-10.573
decision	-10.573
radio	-10.5732
Depth	-10.5732
timeout	-10.5734
Predicate	-10.5749
Ship	-10.575
shift	-10.5751
features	-10.5751
setImageResource	-10.5751
reply	-10.5751
getFirst	-10.5753
fit	-10.5755
buf	-10.5756
sheet	-10.5757
registers	-10.5757
intValue	-10.576
Submit	-10.5764
each	-10.5767
Mandelbrot	-10.5768
employee	-10.5768
Surface	-10.5768
RelativeLayout	-10.577
▁chat	-10.5779
Evaluator	-10.5786
Sprite	-10.5787
▁sort	-10.5787
ans	-10.5793
ute	-10.58
diff	-10.5802
Equal	-10.5807
Graphics	-10.5807
Added	-10.5807
▁props	-10.5813
vr	-10.5819
confirm	-10.5824
Resolver	-10.5826
native	-10.5827
more	-10.5827
getDate	-10.583
TL	-10.5832
[1];	-10.5835
ula	-10.584
Zoom	-10.5843
didi	-10.5844
payload	-10.5845
0000	-10.585
▁scan	-10.5852
newInstance	-10.5859
We	-10.5861
TASK	-10.5862
Claim	-10.5862
Rectangle	-10.5863
dist	-10.5869
tal	-10.5872
Presenter	-10.5873
hor	-10.5875
Conf	-10.5877
Rotation	-10.5881
EventHandler	-10.5898
may	-10.59
▁extra	-10.59
LOCATION	-10.59
Filename	-10.5901
WA	-10.5917
chess	-10.5919
bank	-10.5926
keyword	-10.593
fish	-10.5937
LIST	-10.5938
Transfer	-10.5938
construct	-10.5942
artem	-10.5944
Original	-10.5946
▁clear	-10.5959
▁year	-10.5962
▁initialize	-10.5967
metrics	-10.5971
marketing	-10.5973
userId	-10.5975
Dispatcher	-10.5976
Employee	-10.5976
waitFor	-10.5981
/")	-10.5982
TOP	-10.5984
EST	-10.5987
▁length	-10.5987
Scheduler	-10.5988
Old	-10.5991
▁reset	-10.5996
MD	-10.6002
four	-10.6005
resultSet	-10.6007
getTag	-10.6008
configure	-10.6009
corp	-10.6012
itext	-10.6014
▁struct	-10.6015
white	-10.6015
▁full	-10.6022
UD	-10.6023
batch	-10.6034
PO	-10.6037
▁jsonObject	-10.6046
finish	-10.605
files	-10.6051
isSelected	-10.6051
Jar	-10.6053
DELETE	-10.6053
jsoup	-10.6053
Help	-10.6054
route	-10.6057
poll	-10.6059
▁spn	-10.6063
LITERAL	-10.6073
SystemTray	-10.6073
ization	-10.6076
rail	-10.6076
linde	-10.6076
Deck	-10.6077
algorithms	-10.6079
ola	-10.6083
VER	-10.6083
Coordinates	-10.6084
▁sum	-10.6085
even	-10.6087
Fund	-10.6088
children	-10.6089
OO	-10.609
simulator	-10.6092
Three	-10.6092
evaluate	-10.6092
RESULT	-10.6092
rap	-10.6098
Rules	-10.6109
Fetch	-10.6112
Expected	-10.6112
SystemService	-10.6115
Labels	-10.6116
choose	-10.6117
comment	-10.6121
▁folder	-10.6122
▁sheet	-10.6123
Players	-10.6124
conn	-10.6126
itu	-10.6133
getCode	-10.6136
labs	-10.6143
TokenType	-10.6145
presentation	-10.6153
tan	-10.6156
ny	-10.6159
()))));	-10.6159
getDouble	-10.6161
setup	-10.6162
▁ps	-10.6164
▁getSupport	-10.6167
testing	-10.6172
1)));	-10.6176
Children	-10.6177
Contacts	-10.6185
ComboBox	-10.6187
Release	-10.619
tags	-10.619
rocket	-10.619
Self	-10.6191
food	-10.6198
73	-10.6203
rating	-10.6208
broker	-10.6209
simulation	-10.6209
VM	-10.6212
seek	-10.6212
▁yy	-10.6216
▁been	-10.6219
ura	-10.6222
Confirm	-10.6229
bee	-10.6234
los	-10.6235
extract	-10.6236
convertView	-10.6241
▁word	-10.6247
Cookie	-10.6249
delay	-10.625
▁range	-10.6258
ClassLoader	-10.6259
prob	-10.626
▁getIntent	-10.6264
pin	-10.6265
Serializer	-10.6268
capture	-10.6269
▁auto	-10.6282
faces	-10.6285
workspace	-10.6286
direction	-10.6288
Relationship	-10.6289
subject	-10.629
userAnswer	-10.6297
parseLong	-10.6307
receiver	-10.6308
Break	-10.6308
memory	-10.6308
Same	-10.6309
Unable	-10.6309
▁mouse	-10.6316
SDK	-10.6316
▁interface	-10.6324
createElement	-10.6326
unt	-10.6328
Recognition	-10.6328
attack	-10.6329
wo	-10.633
StringBuffer	-10.633
wd	-10.6331
Artifact	-10.6332
Prefs	-10.6337
setDefault	-10.634
del	-10.6342
MAP	-10.6346
picture	-10.6348
bill	-10.6351
▁collection	-10.6355
▁month	-10.6363
live	-10.6369
GData	-10.6373
safe	-10.6373
bg	-10.6382
rpc	-10.6385
airavata	-10.6387
Manifest	-10.6388
▁queue	-10.6388
lexer	-10.6391
rid	-10.6392
▁points	-10.6393
Win	-10.6393
▁apply	-10.6397
ker	-10.6404
GREEN	-10.6407
APPLICATION	-10.6407
nifi	-10.6413
docker	-10.6415
ErrorMessage	-10.6417
Errors	-10.6426
tk	-10.6427
Money	-10.6428
bulk	-10.6428
RequestParam	-10.6433
Insets	-10.6436
▁thread	-10.6437
correct	-10.6438
lar	-10.644
mar	-10.6453
eng	-10.6455
Finished	-10.6456
sentence	-10.6461
▁items	-10.6463
neu	-10.6465
Resin	-10.6466
expand	-10.6466
Prob	-10.6468
▁download	-10.6481
FileOutputStream	-10.6481
Seq	-10.6483
geom	-10.6485
RadioButton	-10.6489
▁P	-10.6492
getWorld	-10.6493
▁reference	-10.6503
fileName	-10.6504
BASE	-10.6508
bucket	-10.6508
Article	-10.6508
environment	-10.6508
More	-10.6509
▁pl	-10.6513
parameters	-10.6519
Choice	-10.6528
ServiceImpl	-10.6534
pattern	-10.6537
itsy	-10.654
question	-10.6541
Watch	-10.6549
games	-10.6553
planes	-10.6553
define	-10.6558
setStatus	-10.6562
wait	-10.6566
mouse	-10.6567
kafka	-10.6569
external	-10.6569
Syntax	-10.6569
▁connect	-10.657
getLong	-10.6574
Peer	-10.6575
▁"_")	-10.6577
');	-10.6579
folder	-10.658
ORDER	-10.6589
notifyDataSet	-10.659
lun	-10.6596
URE	-10.6597
DP	-10.6607
bounds	-10.6612
▁lock	-10.6613
alias	-10.6621
preferences	-10.6627
maven	-10.6633
drag	-10.6637
scroll	-10.6643
CP	-10.6643
ities	-10.6647
Google	-10.6651
balance	-10.6651
Attachment	-10.6651
attachment	-10.6652
\":\"	-10.6653
▁ome	-10.6653
Sec	-10.6654
▁per	-10.6655
▁author	-10.6657
sms	-10.6658
Station	-10.6663
Measure	-10.6669
▁(-1	-10.6669
idea	-10.6669
sky	-10.6671
Assignment	-10.6673
Invoice	-10.6673
▁flag	-10.6677
mag	-10.668
Chooser	-10.668
▁audio	-10.6683
tel	-10.6688
1_	-10.669
Push	-10.6692
piDist	-10.6693
Vote	-10.6698
WebView	-10.6699
▁6)	-10.6703
patch	-10.671
▁driver	-10.6713
cas	-10.6717
NotNull	-10.6721
sPer	-10.6725
!")	-10.6739
isDebug	-10.6741
>")	-10.6742
units	-10.675
Bank	-10.6754
▁10;	-10.6754
fh	-10.676
pause	-10.6763
Commit	-10.6767
public	-10.6769
quit	-10.6773
subscribe	-10.6774
topology	-10.6774
Fluid	-10.6775
Encoder	-10.6775
getWindow	-10.6776
TIC	-10.6785
tok	-10.6788
Percent	-10.6794
Velocity	-10.6795
period	-10.6796
imm	-10.6802
lect	-10.6805
ren	-10.6806
country	-10.6809
▁gov	-10.6812
year	-10.6812
Immutable	-10.6816
ImageButton	-10.6817
PreferredSize	-10.6817
TableRow	-10.6826
mas	-10.6838
Locator	-10.684
dlna	-10.6841
endpoint	-10.6842
portlet	-10.6842
sym	-10.6843
1))	-10.6846
▁correct	-10.6847
▁slot	-10.6847
TT	-10.6849
HTML	-10.6858
Strategy	-10.6858
Unknown	-10.6858
pet	-10.686
house	-10.6864
▁scale	-10.6865
▁route	-10.6875
floor	-10.6879
▁plane	-10.6881
▁batch	-10.6884
ban	-10.6885
Publisher	-10.6891
sound	-10.6894
getBase	-10.6895
RELATED	-10.6899
DataSource	-10.6899
goal	-10.6906
sBy	-10.6906
▁dis	-10.6906
tur	-10.6911
▁paint	-10.6916
TC	-10.6923
hex	-10.6926
dep	-10.6929
boot	-10.6933
poke	-10.6935
10);	-10.6936
News	-10.6938
dbms	-10.6939
CLASS	-10.6942
oUpperCase	-10.6942
Shift	-10.6942
Clear	-10.6942
vplex	-10.6943
CC	-10.6945
cap	-10.6946
zone	-10.6957
▁iter	-10.6958
▁system	-10.6963
experiment	-10.6963
inject	-10.6963
House	-10.6963
solr	-10.6964
mongodb	-10.6965
wild	-10.6965
Connected	-10.6968
fx	-10.6972
Inf	-10.6976
Attack	-10.6976
▁distance	-10.698
BLACK	-10.6984
Activities	-10.6984
ToolTipText	-10.6984
percent	-10.6985
rotation	-10.6987
▁"]	-10.6992
equalTo	-10.6993
yes	-10.6994
role	-10.7003
Algorithm	-10.7006
Pixels	-10.7012
▁best	-10.7012
▁"%	-10.7015
war	-10.7017
Reason	-10.7027
Platform	-10.7027
StartTime	-10.7028
▁diff	-10.703
PendingIntent	-10.703
dg	-10.7037
filename	-10.7046
normal	-10.7051
(10,	-10.7068
Criteria	-10.707
Creation	-10.707
unib	-10.7072
pk	-10.7081
Sender	-10.7083
Completed	-10.7084
rg	-10.7085
White	-10.709
candidate	-10.7091
crypto	-10.7091
▁api	-10.7092
▁place	-10.7093
▁answer	-10.7108
▁destination	-10.7109
cisco	-10.7113
Dim	-10.7117
sadl	-10.7118
Worker	-10.7118
Signal	-10.7119
Disable	-10.7122
ISO	-10.7126
swipe	-10.7134
IllegalState	-10.7137
customer	-10.7141
loth	-10.7146
▁icon	-10.7148
exo	-10.7148
SelectionEvent	-10.7151
Clock	-10.7154
oul	-10.7154
Serial	-10.7155
desktop	-10.7155
enabled	-10.7165
▁make	-10.717
Cat	-10.7172
wrap	-10.7172
nec	-10.7173
▁copy	-10.7174
Pause	-10.7174
syn	-10.7175
increment	-10.7177
FileInputStream	-10.7179
evolve	-10.7182
ql	-10.7184
hive	-10.7191
getServer	-10.7191
Cart	-10.7191
War	-10.7196
Direct	-10.7196
Business	-10.7199
async	-10.7199
TextArea	-10.7201
nx	-10.7202
valid	-10.7215
ibility	-10.722
executor	-10.722
instruction	-10.722
SUB	-10.7221
IMAGE	-10.7221
flat	-10.7221
damage	-10.7222
magic	-10.7237
Mat	-10.7244
rf	-10.7244
▁fields	-10.7245
enght	-10.7247
PE	-10.7254
databind	-10.7258
▁price	-10.726
Vo	-10.726
selection	-10.7262
SCREEN	-10.7264
planner	-10.7266
stand	-10.7269
arc	-10.7271
▁question	-10.7276
RGB	-10.728
unchecked	-10.7286
Shared	-10.7286
▁non	-10.7291
NotFound	-10.7295
Exist	-10.7295
▁cb	-10.7298
▁bar	-10.73
sem	-10.7302
NS	-10.7304
getLine	-10.7304
bc	-10.7309
ser	-10.7313
▁short	-10.7321
vec	-10.7322
operations	-10.7323
lex	-10.7326
Zip	-10.7326
▁C	-10.7326
Workspace	-10.7332
detect	-10.7337
previous	-10.7338
▁cancel	-10.734
DA	-10.7352
Redirect	-10.7354
Four	-10.7355
Equals	-10.7357
▁role	-10.7357
EventListener	-10.7358
▁wait	-10.7361
ListAdapter	-10.7368
solver	-10.7369
▁selection	-10.7373
retrieve	-10.7374
Quote	-10.7374
www	-10.7374
pojo	-10.7378
▁convert	-10.7381
▁created	-10.7385
Comm	-10.7389
fin	-10.7391
Visit	-10.7392
Stroke	-10.7399
navigation	-10.7417
para	-10.7423
Loaded	-10.7428
▁screen	-10.7431
NA	-10.7434
▁renderer	-10.7434
Env	-10.7438
ntk	-10.7439
analytics	-10.744
PERMISSION	-10.744
Alias	-10.744
statement	-10.744
Transport	-10.7442
getProject	-10.7446
▁owner	-10.7446
62	-10.7452
Components	-10.7454
addItem	-10.7454
▁jjt	-10.746
Console	-10.7462
WIDTH	-10.7462
categories	-10.7462
CLOSE	-10.7462
Accept	-10.7462
▁upload	-10.7465
LOW	-10.747
getLocal	-10.7471
Tax	-10.7477
avi	-10.7482
Skip	-10.7485
lower	-10.7485
TF	-10.7487
tre	-10.7487
[]>	-10.7488
dialogs	-10.7491
Own	-10.7491
gene	-10.7494
door	-10.7503
52	-10.7504
getCount	-10.7506
Frequency	-10.7507
Pan	-10.7508
lookup	-10.7509
jena	-10.751
Convert	-10.7512
PackageManager	-10.7517
metric	-10.752
backup	-10.7521
removeAll	-10.7521
available	-10.7522
▁tx	-10.7527
ACTIVITY	-10.7529
Shell	-10.7529
▁network	-10.7532
▁kind	-10.7533
Records	-10.7539
▁'")	-10.7541
canvas	-10.7543
bytes	-10.7546
parts	-10.7546
Theme	-10.7547
infrastructure	-10.7552
getStart	-10.7554
Len	-10.7556
▁win	-10.7558
javascript	-10.7561
▁textView	-10.7562
cmp	-10.7562
▁getActivity	-10.7563
Inner	-10.7567
mps	-10.7569
▁counter	-10.757
constants	-10.7576
errorMessage	-10.7579
care	-10.7583
oid	-10.7583
▁remote	-10.7587
failed	-10.7591
▁2));	-10.7596
Hook	-10.7597
lastIndexOf	-10.7597
orig	-10.7597
Nullable	-10.7604
▁than	-10.7605
▁"&	-10.761
scanner	-10.7611
methods	-10.7613
actual	-10.7613
256	-10.7616
PRE	-10.7617
LT	-10.7618
allow	-10.7618
authentication	-10.7619
moveTo	-10.7621
crea	-10.7621
Metric	-10.7623
getTarget	-10.7633
808	-10.7635
Leg	-10.7636
frc	-10.764
GROUP	-10.7642
Creator	-10.7642
Motor	-10.7644
▁fill	-10.7646
dsl	-10.7646
Hint	-10.765
invoice	-10.7653
:500	-10.7655
Words	-10.7662
Black	-10.7664
Observable	-10.7664
Wall	-10.7669
three	-10.7669
aws	-10.7674
TRANS	-10.7677
callback	-10.7681
▁window	-10.7684
▁render	-10.7685
▁cannot	-10.7689
()];	-10.7693
ITEM	-10.7693
Allowed	-10.7697
----------------	-10.7701
▁subject	-10.7707
Cont	-10.7707
jett	-10.7707
CT	-10.7709
Bukkit	-10.771
Detector	-10.771
SUCCESS	-10.771
assignment	-10.7712
▁initial	-10.7714
ata	-10.7714
▁prod	-10.7723
▁calendar	-10.7726
flink	-10.7733
▁toolbar	-10.7739
Rep	-10.7743
collections	-10.7745
---	-10.7751
Experiment	-10.7756
Calculator	-10.7756
Vehicle	-10.7756
xyz	-10.777
▁manager	-10.7772
▁16));	-10.7776
▁extract	-10.7778
HEIGHT	-10.7779
summary	-10.7779
▁click	-10.778
jmri	-10.778
Any	-10.778
uff	-10.778
600	-10.7783
Required	-10.7786
▁alt	-10.779
coll	-10.7793
▁pt	-10.7793
kin	-10.7795
▁"'")	-10.7796
qc	-10.7801
telephony	-10.7802
Enemy	-10.7802
▁verify	-10.7804
Visitor	-10.7806
▁tvS	-10.7807
Anim	-10.7811
upper	-10.7812
today	-10.7817
▁70	-10.782
validator	-10.7824
populate	-10.7825
race	-10.7825
ROW	-10.7833
fb	-10.7847
should	-10.7847
retrofit	-10.7847
ery	-10.7851
▁import	-10.7854
dest	-10.7857
iq	-10.7861
MediaType	-10.7863
okhttp	-10.7864
▁42	-10.7867
interface	-10.7869
money	-10.7873
▁desc	-10.7877
Formatter	-10.7881
initialize	-10.7881
Bill	-10.7885
doReturn	-10.7885
Square	-10.7894
▁retrofit	-10.7895
▁500	-10.7898
▁expression	-10.79
Repo	-10.7902
exchange	-10.7903
▁but	-10.7904
fw	-10.7907
persist	-10.7917
▁errors	-10.7917
entries	-10.7918
NODE	-10.792
fake	-10.7924
MQ	-10.7924
043	-10.7924
pipe	-10.7926
UserId	-10.7927
uid	-10.7928
hal	-10.7928
▁done	-10.7928
Plane	-10.7937
cassandra	-10.7941
Battle	-10.7941
▁".")	-10.7943
jsp	-10.7947
7);	-10.7949
▁any	-10.7952
Gson	-10.7959
midi	-10.7963
Weakness	-10.7964
AGE	-10.7971
fields	-10.7974
▁xsp	-10.7981
▁schedule	-10.7981
Toggle	-10.7982
Letter	-10.7987
SIGN	-10.7987
Moves	-10.7988
▁need	-10.7991
assertFalse	-10.7996
setVertical	-10.8011
subscription	-10.8011
currency	-10.8011
wm	-10.8011
Plot	-10.8011
Missing	-10.8017
sig	-10.8028
▁37	-10.803
itter	-10.8034
iristk	-10.8034
stmt	-10.8035
▁au	-10.8038
Features	-10.8039
charset	-10.8039
getTeam	-10.805
CD	-10.8051
hazelcast	-10.8058
getDescription	-10.8062
answer	-10.8063
Dialogue	-10.8063
FileWriter	-10.8064
Enable	-10.8067
Credentials	-10.8069
Rating	-10.807
Transformer	-10.8073
▁NULL	-10.8076
▁customer	-10.808
▁"1"	-10.8081
silverpeas	-10.8082
▁AS	-10.8082
Ignore	-10.8082
Zero	-10.8083
Analyzer	-10.8084
SearchResult	-10.8088
ison	-10.8089
extra	-10.8091
datastore	-10.8091
functions	-10.8102
▁dataSnapshot	-10.8111
▁getResources	-10.8112
Functions	-10.8112
Warning	-10.8119
Front	-10.8129
▁cz	-10.8131
Printer	-10.8137
Movement	-10.8138
▁topic	-10.8142
chain	-10.8142
▁rx	-10.8144
▁2),	-10.8152
OPTION	-10.8153
▁received	-10.8153
oauth	-10.8156
gnu	-10.8158
▁sc	-10.8164
Cor	-10.8166
jcr	-10.8167
▁255));	-10.8169
Ratio	-10.8172
road	-10.8174
delta	-10.8178
Txt	-10.8178
uof	-10.818
paint	-10.8182
▁(""	-10.8184
coin	-10.8185
▁join	-10.8186
NUM	-10.8187
zen	-10.819
calculate	-10.8197
WhiteBalance	-10.8201
mask	-10.8201
Upgrade	-10.8202
what	-10.8203
Bet	-10.8205
Extractor	-10.8205
▁viewHolder	-10.8207
Pdf	-10.8217
ARG	-10.8225
codec	-10.8232
Bad	-10.8247
Death	-10.8249
essayer	-10.8249
Walk	-10.825
Am	-10.8252
setCurrent	-10.826
mal	-10.8263
tx	-10.8263
spin	-10.8264
▁socket	-10.8268
touch	-10.8272
erracotta	-10.8273
Earth	-10.8273
getTile	-10.8273
Cannot	-10.8274
COLOR	-10.8274
recover	-10.8275
xy	-10.8276
▁existing	-10.8279
eur	-10.828
keep	-10.8286
ual	-10.8297
▁1)));	-10.8297
Sentence	-10.8298
setImage	-10.8301
▁inv	-10.8303
DD	-10.8305
hd	-10.8309
▁60)	-10.8313
usage	-10.8319
original	-10.832
Music	-10.8322
strate	-10.833
Used	-10.8336
Relative	-10.8342
thought	-10.8345
study	-10.8346
▁ver	-10.8346
800	-10.8348
motion	-10.8353
MenuBar	-10.8357
setDisplay	-10.836
82	-10.836
▁--	-10.8361
Exec	-10.8361
Radio	-10.8364
booking	-10.8369
Review	-10.837
vpn	-10.8375
▁cost	-10.8376
▁GT	-10.8382
▁camera	-10.8385
alert	-10.8388
wizard	-10.8394
Threshold	-10.8394
Charset	-10.8395
USE	-10.8402
pal	-10.8408
present	-10.841
ldap	-10.8417
Candidate	-10.8419
ZERO	-10.8419
suite	-10.8423
compare	-10.8423
soc	-10.8425
andy	-10.8428
▁available	-10.8428
▁!(	-10.8431
tip	-10.8434
200,	-10.8437
▁program	-10.844
serialization	-10.8443
week	-10.8443
▁video	-10.8444
Special	-10.8451
serial	-10.8462
concept	-10.8464
Completion	-10.8468
statistics	-10.8468
Submission	-10.847
wave	-10.847
getMethod	-10.8473
hil	-10.8477
Trip	-10.849
pipeline	-10.8495
DataSet	-10.8499
POS	-10.85
rent	-10.8502
todo	-10.8504
Age	-10.8506
ANT	-10.8512
Sim	-10.8516
>\	-10.8518
CM	-10.852
▁iterator	-10.8523
▁car	-10.8529
▁1)])	-10.8536
centr	-10.8541
Circle	-10.8542
latitude	-10.8542
longitude	-10.8542
tuple	-10.8542
theme	-10.8545
mcampus	-10.8547
▁pnl	-10.8552
oop	-10.8555
sci	-10.857
handlers	-10.8572
executeUpdate	-10.858
hour	-10.8583
KMap	-10.8583
ontology	-10.8591
INDEX	-10.8592
Disk	-10.8593
▁stage	-10.8596
Sent	-10.8603
eval	-10.8605
91	-10.8606
EE	-10.8606
tron	-10.8611
dossier	-10.8616
sprite	-10.8616
Dev	-10.8618
Constructor	-10.862
alg	-10.8621
Edges	-10.8622
)))));	-10.8626
Successful	-10.8639
SEVERE	-10.8641
ingham	-10.8642
12345	-10.8642
dbClient	-10.8644
Formula	-10.8644
voting	-10.8645
UL	-10.8651
own	-10.8656
▁35	-10.8657
rib	-10.8657
pas	-10.8659
ContentValues	-10.866
tom	-10.8666
Psi	-10.8667
Deployment	-10.8667
oz	-10.8669
Extract	-10.8676
▁track	-10.8681
Tracking	-10.8689
Diagram	-10.8692
PREFIX	-10.8692
Encoding	-10.8692
Conn	-10.8693
()[	-10.8696
manage	-10.8699
ECT	-10.8702
gram	-10.8702
pac	-10.8704
Public	-10.8713
directory	-10.8714
obicents	-10.8717
Food	-10.8717
Blue	-10.8717
cookie	-10.8717
▁bytes	-10.8718
ama	-10.8719
Outcome	-10.872
getTotal	-10.8723
▁30)	-10.8726
lia	-10.8727
000)	-10.8728
phase	-10.8729
gin	-10.8738
lb	-10.8745
interval	-10.8748
Grade	-10.8749
disable	-10.8751
atlas	-10.8753
▁21	-10.8757
SERVER	-10.8767
Characteristic	-10.8768
dispose	-10.8768
marker	-10.8771
addCell	-10.8776
apimgt	-10.8781
yan	-10.8784
▁5);	-10.8792
crawler	-10.8793
MATCH	-10.8793
evaluation	-10.8793
truffle	-10.8793
Replace	-10.8797
activ	-10.8801
openrdf	-10.8802
▁hour	-10.8804
signal	-10.8813
eff	-10.8814
getDrawable	-10.8814
()]	-10.8816
Average	-10.8818
Combo	-10.882
getRow	-10.8822
((""	-10.8822
2),	-10.8824
Dot	-10.8831
(1.0	-10.8832
getHost	-10.8833
lc	-10.8834
getLabel	-10.8836
ContentResolver	-10.8843
follow	-10.8845
relationship	-10.8845
(4)	-10.8845
▁52	-10.8848
Demo	-10.8854
▁scroll	-10.8855
cpu	-10.8857
Multiple	-10.886
▁chain	-10.8862
Pin	-10.8866
Forecast	-10.8869
Instruction	-10.8869
dex	-10.8869
fhir	-10.8871
quick	-10.8871
Building	-10.8877
BACK	-10.8878
("{	-10.8883
Mem	-10.8886
sonar	-10.8894
Broker	-10.8895
WalkableZone	-10.8895
Iterable	-10.8897
TimeUnit	-10.8898
102	-10.8902
▁fail	-10.8908
fileService	-10.8912
storm	-10.8917
Hex	-10.892
Entities	-10.8921
measure	-10.8921
getProduct	-10.8921
PrintWriter	-10.8923
getLength	-10.8925
("0"	-10.8925
DataType	-10.8927
▁len	-10.8928
epad	-10.8931
CHAR	-10.8934
adapters	-10.8935
Cert	-10.8936
ImageIcon	-10.8939
mad	-10.8941
dict	-10.8943
ita	-10.8945
Ben	-10.8946
Dependency	-10.8946
Quick	-10.8947
/{	-10.8951
▁45	-10.8953
gis	-10.8974
jpa	-10.8976
Launcher	-10.8982
VK	-10.8988
setAction	-10.8993
grant	-10.8998
circle	-10.8998
modified	-10.8998
drive	-10.9001
Revision	-10.9002
StatusCode	-10.9006
aho	-10.9007
rot	-10.902
Dep	-10.902
Dist	-10.9024
TP	-10.9025
mate	-10.9027
▁into	-10.9028
Forward	-10.9028
IND	-10.9034
▁limit	-10.9038
Members	-10.9038
Try	-10.9045
123	-10.905
vehicle	-10.905
Actual	-10.905
WARNING	-10.905
Variant	-10.905
skill	-10.9051
But	-10.9052
flash	-10.9053
aff	-10.9055
nextToken	-10.9059
month	-10.9063
about	-10.9064
▁changed	-10.9066
Pay	-10.9072
EV	-10.9073
getDocument	-10.9079
cube	-10.9081
Life	-10.9087
gate	-10.9088
setSelection	-10.9093
CHANGE	-10.9102
surance	-10.9103
secure	-10.9105
maze	-10.9116
signed	-10.9124
▁added	-10.9125
Anchor	-10.9129
average	-10.9129
ACCESS	-10.9129
▁alertDialog	-10.9132
grade	-10.914
FileNotFound	-10.9142
xcode	-10.9144
8080	-10.9144
pkg	-10.9145
▁numberOf	-10.9146
readInt	-10.9149
wrong	-10.9155
future	-10.9156
textView	-10.9159
CMD	-10.9162
spring	-10.9162
▁duration	-10.9163
RES	-10.9175
Currency	-10.9181
Indices	-10.9181
general	-10.9182
Cast	-10.9182
margin	-10.9182
UNIT	-10.9182
ByteBuffer	-10.9185
OWL	-10.9189
Keyboard	-10.9192
getAsJson	-10.9192
Locked	-10.9194
▁jp	-10.9198
Req	-10.9201
Certificate	-10.9208
FundOption	-10.9209
▁41	-10.9211
gridx	-10.9213
lor	-10.9219
sqlite	-10.9219
BLOCK	-10.9219
Generation	-10.9234
dimension	-10.9234
▁txtErrorMsgFor	-10.9234
snapshot	-10.9235
twitter	-10.9235
Execute	-10.9235
etPositiveButton	-10.9235
Arrow	-10.9235
Payload	-10.9236
Reply	-10.9237
transition	-10.9239
BorderLayout	-10.9243
Comments	-10.9244
good	-10.9244
peak	-10.9245
Git	-10.9248
Ok	-10.925
EQ	-10.9251
HttpClient	-10.9252
PAR	-10.9255
cls	-10.926
Authorization	-10.9261
launch	-10.927
ibm	-10.9275
viewer	-10.9277
▁packet	-10.9278
gradle	-10.9288
FILL	-10.9288
OFF	-10.9292
Drive	-10.9294
taxon	-10.9298
dataflow	-10.9302
timer	-10.9303
▁7;	-10.9303
setMax	-10.9305
▁choice	-10.9307
])))	-10.9307
OnItemClick	-10.9308
▁env	-10.931
999	-10.9312
EDIT	-10.9314
HORIZONTAL	-10.9314
leuthkit	-10.9314
Unsupported	-10.9314
DataBase	-10.9339
credentials	-10.934
▁real	-10.9347
▁radius	-10.9352
compat	-10.936
▁sequence	-10.9361
Present	-10.9362
Vol	-10.9362
Friend	-10.9363
VP	-10.9367
Collision	-10.9368
Heap	-10.9368
aq	-10.9372
cpa	-10.9375
▁cpu	-10.9377
proj	-10.9384
Calc	-10.9388
▁direction	-10.9392
geogebra	-10.9395
Comparator	-10.9395
syntax	-10.9395
tex	-10.9397
','	-10.9397
Tokenizer	-10.9401
Pending	-10.9411
fair	-10.9411
getComponent	-10.942
east	-10.9422
Tenant	-10.9422
remaining	-10.9423
quiz	-10.9431
▁trigger	-10.9432
edera	-10.9435
UID	-10.9435
OVER	-10.9437
FORMAT	-10.9438
▁criteria	-10.9438
gridy	-10.9441
▁drawer	-10.9441
FirstName	-10.9442
PRIVATE	-10.9449
glVertex	-10.9454
react	-10.9467
dse	-10.9475
COMP	-10.9476
ballerina	-10.9476
Cal	-10.9477
▁directory	-10.9479
orra	-10.9489
visitor	-10.9492
Automat	-10.9497
Compound	-10.9499
univers	-10.9504
Chess	-10.9506
Repair	-10.9509
getInputStream	-10.9512
▁issue	-10.9515
000000	-10.9516
enter	-10.9517
Best	-10.9521
decompiler	-10.9522
messaging	-10.9531
floodlight	-10.9531
ContactDistances	-10.9531
connected	-10.9531
INVALID	-10.9532
getUsername	-10.9532
numberOf	-10.9533
developer	-10.9535
hh	-10.954
EXP	-10.9543
▁convertView	-10.9549
words	-10.9549
arena	-10.9549
dependency	-10.9558
OrdersInQueque	-10.9558
Clean	-10.9558
▁calculate	-10.9559
Feedback	-10.9559
Dat	-10.956
arch	-10.9561
▁playfield	-10.9562
▁weight	-10.9572
TRI	-10.9573
elm	-10.9579
Editable	-10.9581
arrow	-10.9581
Company	-10.9587
Wave	-10.9595
linear	-10.9597
▁gene	-10.9597
Pull	-10.9599
robo	-10.9602
FileReader	-10.9602
HttpResponse	-10.9608
Roll	-10.9609
Correct	-10.9614
Online	-10.9617
▁18)	-10.9636
Transform	-10.964
Without	-10.9641
mvp	-10.9643
Begin	-10.9643
▁(((((((	-10.9644
that	-10.9658
nextLine	-10.9667
vmware	-10.9671
vote	-10.9674
after	-10.9682
[5]	-10.9683
terms	-10.9685
▁include	-10.9686
rocks	-10.9695
Vertices	-10.9696
Credit	-10.9697
Digit	-10.9697
was	-10.9697
Tip	-10.9699
ProgressBar	-10.9703
pol	-10.9708
Publish	-10.9709
done	-10.9714
Fix	-10.9715
peg	-10.9717
▁invalid	-10.9723
Invocation	-10.9724
energy	-10.9724
budget	-10.9734
Finder	-10.9747
possible	-10.9753
social	-10.9753
tud	-10.9757
dat	-10.9759
wiki	-10.9763
GameBoard	-10.9766
▁bottom	-10.9773
PROPERTY	-10.978
Hours	-10.9794
aard	-10.98
Tele	-10.9803
disconnect	-10.9808
Capacity	-10.9808
visible	-10.9811
uib	-10.9813
getArg	-10.9822
ferma	-10.9829
thrift	-10.9836
anchor	-10.9837
saved	-10.9844
texture	-10.9846
picker	-10.9853
FieldName	-10.9854
Party	-10.9861
ACK	-10.9862
Swipe	-10.9864
Tech	-10.9866
▁updated	-10.9866
INPUT	-10.9866
osy	-10.9869
pick	-10.9876
Namespace	-10.9876
smt	-10.9879
isIn	-10.9881
kan	-10.9885
▁marker	-10.9898
GO	-10.99
Goal	-10.9904
TileEntity	-10.991
rom	-10.9913
Throw	-10.9918
Dictionary	-10.9921
Previous	-10.9921
workbench	-10.9922
coder	-10.9924
Removed	-10.9924
Friends	-10.9927
▁saved	-10.9932
Validate	-10.9932
Manage	-10.9936
((((((((((((((((	-10.9937
▁like	-10.9946
2016	-10.9947
unique	-10.9952
dice	-10.9957
wpi	-10.996
▁2.0	-10.9975
▁12)	-10.9978
func	-10.9981
dispatch	-10.9982
env	-10.9983
paper	-10.9987
gmail	-10.9988
kl	-10.9989
Unexpected	-11.0011
encrypt	-11.0011
JCheckBox	-11.0014
DrawerLayout	-11.0015
Country	-11.0017
micro	-11.002
SSL	-11.002
uml	-11.0023
motor	-11.0024
draft	-11.0025
Uid	-11.0028
allowed	-11.0029
Skill	-11.0033
lore	-11.0033
amazon	-11.0036
mkdir	-11.0036
Green	-11.0036
Attempt	-11.0036
quote	-11.0037
require	-11.004
owlapi	-11.0042
Interest	-11.0042
eep	-11.0043
requestCode	-11.0047
wind	-11.0049
gan	-11.0053
POINT	-11.0061
destination	-11.007
ImageUtil	-11.0075
fragmentation	-11.0078
nwa	-11.0086
Keyword	-11.0088
BAD	-11.0089
receipt	-11.0093
Solution	-11.0094
peek	-11.0094
Bond	-11.0095
hydra	-11.0096
Take	-11.0101
cul	-11.0112
▁16)	-11.0113
DataSnapshot	-11.0113
Clip	-11.0114
projectk	-11.0116
Popup	-11.0117
Serializable	-11.0123
MONTH	-11.0123
NULL	-11.0129
checkstyle	-11.0129
UC	-11.0134
ire	-11.014
concat	-11.0146
Kit	-11.0148
eye	-11.0155
Live	-11.0161
snap	-11.0168
cost	-11.0169
Complex	-11.0176
cht	-11.0176
openha	-11.0192
OAuth	-11.0198
jruby	-11.021
Maze	-11.021
Bulk	-11.021
mnu	-11.0215
owl	-11.022
getSimpleName	-11.0221
Kill	-11.0225
Addr	-11.0231
▁["	-11.0238
Collector	-11.0242
exc	-11.0248
NI	-11.0253
PREF	-11.0256
submission	-11.026
implementation	-11.0269
AUTO	-11.0269
Repeat	-11.027
deployment	-11.027
emit	-11.0275
FileUtils	-11.0277
deal	-11.0277
compress	-11.0278
repaint	-11.0279
ContentType	-11.0282
plex	-11.0287
Force	-11.029
nik	-11.0293
▁8;	-11.0294
bib	-11.0294
elem	-11.0297
cached	-11.0298
rack	-11.0299
=?	-11.0299
attempt	-11.0302
scanpos	-11.0302
Singleton	-11.0308
namespace	-11.0309
scape	-11.0314
setParameter	-11.0318
primitive	-11.0328
TITLE	-11.0328
descriptors	-11.0336
kura	-11.035
isEqualTo	-11.0357
pur	-11.0358
reminder	-11.0358
fieldValue	-11.0359
Poly	-11.0362
stratio	-11.0365
look	-11.0371
hold	-11.0373
descriptor	-11.0379
tele	-11.0385
under	-11.0385
Blank	-11.0386
Started	-11.0387
distribution	-11.0387
Album	-11.0387
priority	-11.0388
etvirt	-11.0388
mix	-11.039
Quad	-11.0391
--)	-11.0398
▁contactA	-11.0403
translation	-11.0417
getUuid	-11.0422
JComboBox	-11.0423
converter	-11.0425
failure	-11.0426
proc	-11.0427
powered	-11.0427
Land	-11.044
("--	-11.0442
Locomoti	-11.0447
school	-11.0447
▁listView	-11.0449
castle	-11.0455
party	-11.0459
jan	-11.0459
bur	-11.0464
Pick	-11.0466
auf	-11.047
HEC	-11.0471
getJSONArray	-11.0476
deploy	-11.0476
PROP	-11.0476
volution	-11.0477
Catalog	-11.0477
WITH	-11.0477
Parsing	-11.0477
Ball	-11.0482
Saved	-11.0494
findElement	-11.0499
capabilities	-11.0507
coding	-11.0509
activate	-11.0509
JFrame	-11.0516
getSupport	-11.0518
Slider	-11.0518
STOP	-11.052
TableName	-11.0525
Fixed	-11.0526
building	-11.0536
Hidden	-11.0537
midpoint	-11.0538
ition	-11.0539
incoming	-11.0548
There	-11.0548
getInventory	-11.0548
setMaximum	-11.0555
zero	-11.0556
asc	-11.0559
Way	-11.0559
mind	-11.0561
chr	-11.0567
RULE	-11.0568
Supported	-11.0568
tweet	-11.0568
Highlight	-11.0569
selector	-11.0572
ViewPager	-11.0573
oll	-11.0593
Struct	-11.0598
Remaining	-11.0598
branch	-11.0598
Cause	-11.0599
Unique	-11.0601
currentPlayer	-11.0602
ProgressDialog	-11.0609
blog	-11.061
parseFloat	-11.0614
▁20;	-11.0617
bson	-11.0625
NoSuch	-11.0629
Resolve	-11.0633
hack	-11.0639
▁onSuccess	-11.0641
HH	-11.0641
working	-11.0642
Arm	-11.0649
interest	-11.0649
onCommo	-11.0651
Rel	-11.0653
Snap	-11.0654
constraint	-11.0656
BUTTON	-11.0659
runner	-11.0662
getItemId	-11.0665
Booking	-11.0685
VertexManager	-11.0689
Writable	-11.069
generic	-11.069
Secure	-11.0691
expect	-11.0704
▁song	-11.0711
JOIN	-11.0721
wordpress	-11.0722
3000	-11.0735
decl	-11.0741
nfc	-11.0744
ChangedListener	-11.0745
Ready	-11.075
[2]))	-11.0751
Vertical	-11.0752
Starting	-11.0758
TreeNode	-11.076
111	-11.0761
Design	-11.0766
(500	-11.0768
required	-11.0771
getOwner	-11.0781
Dynamic	-11.0782
FOLLOW	-11.0782
idega	-11.0787
▁"-")	-11.0789
▁dst	-11.0791
setMinimum	-11.0806
tour	-11.0813
HEADER	-11.0814
Subscriber	-11.0815
ReadOnly	-11.0815
archive	-11.0816
ParserUtil	-11.0817
Flight	-11.0819
True	-11.083
quant	-11.083
LastName	-11.0831
DateFormat	-11.0837
getUserId	-11.0839
flip	-11.0844
shutdown	-11.0845
Topology	-11.0845
Floor	-11.0845
shot	-11.0848
FieldValue	-11.0855
best	-11.0864
salt	-11.0866
SQLite	-11.0876
Buy	-11.0877
startTime	-11.0882
egov	-11.089
bench	-11.0894
Gdx	-11.0895
addSelection	-11.0906
depth	-11.0911
Guid	-11.0915
charge	-11.0919
rama	-11.0923
asia	-11.0926
hdm	-11.0934
interpreter	-11.0939
indicator	-11.0939
illa	-11.0953
▁sent	-11.0955
DatabaseHelper	-11.0961
BU	-11.0962
chooser	-11.0962
Grammar	-11.097
dungeon	-11.097
FOUND	-11.097
emp	-11.097
front	-11.0971
pub	-11.0971
ull	-11.0985
xpath	-11.0999
additional	-11.1002
runOnUiThread	-11.1002
sponge	-11.1002
snake	-11.1004
based	-11.1006
NullPointerE	-11.1009
graphic	-11.1011
Reading	-11.1022
rep	-11.1027
startActivity	-11.1031
CONNECT	-11.1033
communication	-11.1034
Favorite	-11.1034
Secret	-11.1035
zk	-11.1041
small	-11.1044
setIs	-11.1058
billing	-11.1058
vaadin	-11.1066
TRUE	-11.1066
gainFocus	-11.1066
azure	-11.1066
Zeiss	-11.1066
Flash	-11.1066
▁onItemClick	-11.1066
ColumnName	-11.1066
Predict	-11.1067
upgrade	-11.1071
FINE	-11.1076
bug	-11.1076
Abs	-11.1086
mLast	-11.1089
ICON	-11.1094
Example	-11.1098
dashboard	-11.1098
nova	-11.11
kbox	-11.1103
ika	-11.1106
kbase	-11.1108
LocalDate	-11.1117
swap	-11.112
Bind	-11.1122
("1"	-11.1124
cnt	-11.1128
Bridge	-11.113
Paragraph	-11.113
advance	-11.113
town	-11.1133
Dict	-11.1133
alex	-11.1134
ready	-11.1135
Proto	-11.1147
Closed	-11.1147
GPS	-11.1148
Ast	-11.1153
Func	-11.1153
received	-11.1154
nine	-11.116
ignite	-11.1162
Modify	-11.1164
frontend	-11.1164
before	-11.1164
cular	-11.1166
formula	-11.117
contacts	-11.1187
ination	-11.1191
INTEGER	-11.1194
killer	-11.1195
jump	-11.12
Overlay	-11.1226
Encounter	-11.1228
syndi	-11.1229
onResume	-11.1229
abstract	-11.1231
plane	-11.1236
crate	-11.1244
▁recyclerView	-11.1259
jTextFieldKFE	-11.1259
Crawl	-11.126
Large	-11.1263
▁mPaint	-11.1266
Projection	-11.1271
geph	-11.1271
Choose	-11.1277
fact	-11.1277
mem	-11.1278
2017	-11.1279
large	-11.1279
fplus	-11.1283
chen	-11.1285
dork	-11.1285
Ctx	-11.1288
mill	-11.129
Axiom	-11.1291
SPACE	-11.1291
reason	-11.1292
street	-11.1295
▁subnet	-11.1298
risktr	-11.1321
Mobile	-11.1324
fel	-11.1325
PLAYER	-11.1325
▁only	-11.133
udo	-11.1331
nbt	-11.1333
Vec	-11.1337
190	-11.1345
deck	-11.1348
Additional	-11.1357
zhou	-11.1357
coordinates	-11.136
Needed	-11.1366
catro	-11.1367
Cap	-11.1369
▁edt	-11.1371
getLongitude	-11.1373
quality	-11.1382
CHECK	-11.139
SHOW	-11.139
linkedin	-11.139
diagram	-11.139
seed	-11.1402
cpp	-11.1403
Lockable	-11.1405
mdm	-11.1408
lst	-11.1418
initial	-11.1422
CURRENT	-11.1423
conversation	-11.1423
puppycrawl	-11.1423
kuali	-11.1423
BufferedImage	-11.1423
PARAM	-11.1423
Workbench	-11.1423
Staff	-11.1423
getDisplayName	-11.1424
BFC	-11.1424
Replication	-11.1426
Mgr	-11.1429
SignIn	-11.1435
Dead	-11.1438
tell	-11.1453
Classifier	-11.1455
METHOD	-11.1456
nanoTime	-11.1456
WRAP	-11.1456
cypher	-11.1456
attach	-11.1456
beat	-11.1464
iprot	-11.1466
CSV	-11.1469
FOR	-11.1475
▁parsed	-11.1485
Townships	-11.1489
▁locale	-11.149
FAILED	-11.149
003_	-11.1494
FROM	-11.1501
requestFocus	-11.1504
Gender	-11.1507
▁120	-11.1513
='")	-11.1514
invalidate	-11.1517
Categories	-11.1522
CANCEL	-11.1522
▁writableSheet	-11.1522
spell	-11.1523
Market	-11.1534
include	-11.1535
PAGE	-11.1536
509	-11.1537
Put	-11.1538
haredPreferences	-11.154
YES	-11.1543
Artist	-11.1557
resolver	-11.1559
MAIN	-11.1559
cql	-11.156
Horizontal	-11.1561
bpm	-11.1566
Insn	-11.1566
azar	-11.1567
▁jTextField	-11.157
effect	-11.1576
estad	-11.1586
Phrase	-11.1589
Birth	-11.1589
dummy	-11.159
computer	-11.159
hello	-11.1592
align	-11.1593
onOptions	-11.1598
Now	-11.1602
mesh	-11.1605
addChild	-11.1617
ette	-11.1617
ForResult	-11.1623
ModelAndView	-11.1623
chromium	-11.1624
setEditable	-11.1625
animate	-11.1626
ebi	-11.1629
SelectionAdapter	-11.1638
LOCK	-11.1642
hq	-11.1646
Initiator	-11.1657
createStatement	-11.1657
BOLD	-11.1657
comboBox	-11.1658
offer	-11.166
dns	-11.1666
Finish	-11.1669
artist	-11.1671
-8")	-11.1672
EndTime	-11.1673
--------------	-11.1674
BAR	-11.1676
retry	-11.1682
Behavior	-11.1691
disabled	-11.1692
wire	-11.1693
Ste	-11.1695
FORM	-11.1696
training	-11.1705
mntm	-11.1708
DWindow	-11.1712
Charge	-11.1715
publisher	-11.1725
Delegate	-11.1725
Participant	-11.1725
Translate	-11.1725
Good	-11.1727
TRA	-11.1728
matic	-11.1732
ftp	-11.1734
Reporter	-11.1751
MOVE	-11.1758
SYSTEM	-11.1759
Smart	-11.1759
gateway	-11.176
DatFileReference	-11.176
MouseListener	-11.1768
CODES	-11.1771
reload	-11.1772
Sorted	-11.1773
quad	-11.1778
▁endTime	-11.1781
give	-11.1782
rob	-11.1784
1500	-11.179
qty	-11.1791
Bool	-11.1793
positive	-11.1794
qual	-11.1806
Err	-11.1807
Lab	-11.1809
Iter	-11.1809
homa	-11.1811
wise	-11.1827
Instrument	-11.1827
Freq	-11.1841
Resp	-11.1844
onStart	-11.1851
▁'%	-11.1859
online	-11.1859
trigger	-11.1884
owncloud	-11.1899
ToSend	-11.1908
HasAttack	-11.1909
ofbi	-11.1916
gun	-11.1923
buy	-11.1924
preview	-11.1926
VAR	-11.193
Hibernate	-11.1933
forecast	-11.1933
Leader	-11.1939
Wrap	-11.1941
getLatitude	-11.1946
ful	-11.1949
deep	-11.1954
▁200)	-11.1955
duration	-11.1955
dead	-11.1965
aadl	-11.1968
Big	-11.1974
Fast	-11.1976
DatFile	-11.1979
projection	-11.198
101	-11.199
ErrorCode	-11.1993
PK	-11.1997
Construct	-11.1999
Subscribe	-11.2
jTextFieldHFE	-11.2001
instrument	-11.2001
jTextFieldDFE	-11.2001
Rotate	-11.2001
third	-11.2001
Vpn	-11.2002
GENE	-11.2003
your	-11.2022
▁className	-11.2031
molgenis	-11.2036
coordinator	-11.2036
Exchange	-11.2039
Playing	-11.204
volt	-11.2041
getExtras	-11.2041
ava	-11.2043
plain	-11.2047
plication	-11.205
AccessToken	-11.2057
bms	-11.2059
nick	-11.2062
getElementsByTag	-11.2071
KeggPathway	-11.2071
andlepin	-11.2071
Reminder	-11.2071
Numeric	-11.2072
xtend	-11.2074
Std	-11.2078
JScrollPane	-11.208
sax	-11.2083
bird	-11.2084
Deleted	-11.2089
StartDate	-11.2089
gender	-11.2094
ben	-11.2094
uka	-11.2096
ResponseEntity	-11.2096
HttpStatus	-11.2098
>>>	-11.2103
Prepare	-11.2106
PROJECT	-11.2107
Scheme	-11.2107
signature	-11.2107
IES	-11.2112
CALL	-11.2116
drawImage	-11.2117
ResponseBody	-11.2118
fxml	-11.212
ether	-11.2126
▁onCreateView	-11.2129
mitted	-11.2133
Into	-11.2136
isEnabled	-11.2138
restore	-11.2141
planet	-11.2141
Estimate	-11.2142
Conversation	-11.2142
ATOR	-11.2144
Your	-11.2145
existing	-11.2161
algo	-11.2166
chest	-11.2176
challenge	-11.2178
onPostExecute	-11.2178
townships	-11.2178
espresso	-11.2178
2015	-11.2183
solar	-11.2184
authorization	-11.2185
dstu	-11.2186
tiny	-11.2197
▁dor	-11.2198
Org	-11.2203
findAll	-11.2208
_2_	-11.2212
Facade	-11.2214
Equip	-11.2214
collision	-11.2214
MeasureSpec	-11.2215
modifier	-11.2216
▁toast	-11.222
Regex	-11.2232
Degree	-11.2249
mikep	-11.2249
speech	-11.2249
multiply	-11.2249
cattle	-11.2249
getAsString	-11.2252
BigInteger	-11.2255
crypt	-11.2256
ToggleButton	-11.2257
prep	-11.2278
toJson	-11.2279
Private	-11.2285
CONFIG	-11.2285
Duplicate	-11.2285
About	-11.2286
etNegativeButton	-11.2287
highlight	-11.2287
Conversion	-11.229
integer	-11.2291
Negative	-11.232
BLUE	-11.2321
Safe	-11.2322
Small	-11.2322
visual	-11.2322
plant	-11.2323
Perm	-11.2324
Sink	-11.2328
serialize	-11.2344
LoginActivity	-11.2347
encoded	-11.2348
break	-11.2356
Distribution	-11.2358
family	-11.2358
interrupt	-11.2358
6502.	-11.2358
NotBlank	-11.2359
myhotel	-11.2359
unknown	-11.2363
Pet	-11.237
served	-11.2371
▁imageView	-11.2372
DatePicker	-11.2389
Excel	-11.239
hdfs	-11.2397
Resolution	-11.2399
▁formatter	-11.2401
SUM	-11.2404
▁tableName	-11.2418
foll	-11.2421
west	-11.2424
][0]	-11.243
Leelawadee	-11.2431
traffic	-11.2431
Continue	-11.2431
VPlex	-11.2431
Offer	-11.2433
misc	-11.2435
static	-11.244
-8");	-11.246
facet	-11.2463
Press	-11.2464
TOKEN	-11.2467
parsing	-11.2468
▁100;	-11.2475
atomic	-11.2476
router	-11.2481
Anime	-11.2485
WAR	-11.2495
isConnected	-11.2499
predicate	-11.2504
halocraft	-11.2504
istic	-11.2511
TreeItem	-11.2513
Bug	-11.2518
Rev	-11.2519
getCurrentUser	-11.2525
Thumbnail	-11.2541
HISTORY	-11.2541
HCAL	-11.2541
ovirt	-11.2541
viewport	-11.2543
Keep	-11.2545
numOf	-11.2563
escape	-11.2565
colour	-11.2567
Parcel	-11.2578
threshold	-11.2578
Bucket	-11.2578
orbital	-11.2578
relative	-11.2578
alina	-11.2579
manual	-11.258
▁inputStream	-11.2597
KeyStroke	-11.2609
Semantic	-11.2615
Study	-11.2615
InetAddress	-11.2615
delegate	-11.2615
Trust	-11.2615
scheme	-11.2615
dawn	-11.2615
combined	-11.2618
predict	-11.2625
When	-11.2625
five	-11.263
▁textview	-11.2633
▁want	-11.2641
YEAR	-11.2652
Availability	-11.2652
hop	-11.2656
wallet	-11.2657
jpg	-11.266
1516	-11.2664
wci	-11.2666
unlock	-11.2666
kon	-11.2672
ifera	-11.2677
cmu	-11.268
cond	-11.2688
Principal	-11.269
gaming	-11.2699
▁180	-11.2718
enterprise	-11.2727
CONTROL	-11.2727
Aggregate	-11.2727
Cypher	-11.2727
Vendor	-11.2727
kolorob	-11.2727
overlay	-11.2727
TRAILING	-11.2727
NOTIFICATION	-11.2728
▁retval	-11.2729
fisch	-11.2731
ACT	-11.2733
Typeface	-11.2733
localhost	-11.2742
have	-11.2745
-1.0	-11.2746
solve	-11.2748
Router	-11.275
pratilipi	-11.2765
NORMAL	-11.2765
adaptor	-11.2765
PARAMETER	-11.2765
Jdbc	-11.2765
Wake	-11.2765
etflix	-11.2766
Like	-11.2767
Opcode	-11.2781
Src	-11.2783
systemui	-11.28
opencv	-11.2804
guess	-11.2806
latest	-11.2806
orientation	-11.2815
webkit	-11.2819
dbManager	-11.2834
Between	-11.2841
QUESTION	-11.2841
ShutterSpeed	-11.2841
Guard	-11.2842
arity	-11.2842
▁rtn	-11.2846
detection	-11.2846
Allow	-11.2847
discovery	-11.2848
reverse	-11.287
hijacke	-11.2879
scenario	-11.2879
exercise	-11.2879
LocalizedMessage	-11.2879
▁again	-11.288
moving	-11.288
002_	-11.2881
Tmp	-11.2881
TimeZone	-11.2883
ClassNotFound	-11.2885
talk	-11.2892
Mob	-11.2907
FALSE	-11.2918
postDelayed	-11.2918
BufferedWriter	-11.2918
Operand	-11.2918
openbaton	-11.2918
ellness	-11.2919
xobj	-11.2926
ihm	-11.2929
Lex	-11.2929
materialdialog	-11.2935
datatype	-11.2938
-1"	-11.2945
LibMediaInfo	-11.2956
dynamic	-11.2956
Energy	-11.2956
conflict	-11.2956
teraw	-11.2957
DESC	-11.296
Pipe	-11.2974
divide	-11.2978
Particle	-11.2991
getUniqueId	-11.2991
DIR	-11.2993
POSITION	-11.2995
queries	-11.2995
generation	-11.2995
Lookup	-11.2996
CAP	-11.2996
plate	-11.3
tribu	-11.301
getFileTo	-11.302
Family	-11.3033
Translation	-11.3033
acquire	-11.3033
geek	-11.3034
Compare	-11.3035
Accessor	-11.3037
tiff	-11.3041
Consume	-11.3055
mysql	-11.3056
Each	-11.3069
Enchantment	-11.3072
BlockHunt	-11.3072
MULTI	-11.3072
ATTRIBUTE	-11.3072
beacon	-11.3073
Pack	-11.308
dark	-11.3082
pointer	-11.3093
ESS	-11.3105
ueda	-11.3107
Interpreter	-11.3111
vertices	-11.3111
numPairContacts	-11.3111
exclude	-11.3111
RESOURCE	-11.3113
Quiz	-11.3115
Park	-11.3116
Discovery	-11.3119
mygdx	-11.3121
2014	-11.3124
luc	-11.3128
Brand	-11.3133
mvc	-11.3135
exam	-11.3137
Nav	-11.3147
SPEC	-11.3148
const	-11.3149
lblNewLabel	-11.3151
destroy	-11.3151
Already	-11.3151
Caption	-11.3152
yarn	-11.3153
Fee	-11.3157
Wire	-11.3159
fav	-11.3159
geolocation	-11.3162
LIGHT	-11.3164
resolution	-11.3173
umass	-11.3174
foss	-11.3183
checkout	-11.3184
MASK	-11.319
LinkedHashMap	-11.319
▁successfully	-11.319
Where	-11.319
within	-11.3194
heap	-11.3197
[6]	-11.3199
trove	-11.3199
isDirectory	-11.3209
leader	-11.3211
Append	-11.3213
contentlet	-11.3215
cash	-11.3219
itr	-11.3222
Backup	-11.3222
Persist	-11.3229
framgia	-11.3229
Consistency	-11.3229
surface	-11.323
ServletException	-11.3231
PLAIN	-11.3238
IReader	-11.3245
===============	-11.3247
mongo	-11.3249
IME	-11.326
msk	-11.3267
Attach	-11.3268
Wrong	-11.3268
Sys	-11.3268
fitness	-11.327
methodName	-11.3272
contract	-11.3277
qua	-11.3282
metal	-11.3283
▁setUp	-11.3283
locator	-11.329
RowCount	-11.3297
BlockState	-11.3307
WORK	-11.3309
exactement	-11.3309
subtract	-11.3309
creature	-11.331
Captor	-11.331
PUT	-11.3311
Iteration	-11.3313
nrg	-11.3313
Xobject	-11.3313
WebSocket	-11.3316
jml	-11.3317
camel	-11.3319
geotool	-11.332
bmp	-11.3322
136	-11.3326
160	-11.3347
kotlin	-11.3349
tweaks	-11.3349
digital	-11.3349
velocity	-11.3349
WORD	-11.3349
opencps	-11.3349
Armor	-11.3355
Mesh	-11.3356
StorageSystem	-11.3361
Qual	-11.3368
cool	-11.3368
9))	-11.3384
Kafka	-11.3389
Cycle	-11.3389
Div	-11.3389
isNotEmpty	-11.3389
morph	-11.339
roda	-11.3393
ensure	-11.3399
Misc	-11.3403
collector	-11.3415
▁menuItem	-11.3419
you	-11.3423
Later	-11.3426
SOURCE	-11.3427
matched	-11.3429
emoranda	-11.3429
WRITE	-11.3429
neighbor	-11.3429
genome	-11.343
cqt	-11.343
▁mouseClicked	-11.343
Due	-11.3434
PART	-11.3437
Atomic	-11.3438
CLI	-11.344
Existing	-11.3457
ench	-11.3466
Physical	-11.347
Migration	-11.347
Mongo	-11.347
Simulation	-11.3471
Docker	-11.3471
routing	-11.3475
entire	-11.3475
rgb	-11.3477
jira	-11.3477
fromJson	-11.3478
Exam	-11.3483
VTC	-11.3487
lead	-11.3488
Pop	-11.3506
Interaction	-11.3507
(3))	-11.3507
Journal	-11.3511
shadow	-11.3511
broadcast	-11.3511
Yatra	-11.3511
slick	-11.3511
Myhotel	-11.3512
Quest	-11.3512
creator	-11.3513
Under	-11.3519
past	-11.3522
INTER	-11.3528
sendTo	-11.3529
setTypeface	-11.3544
LOCAL	-11.3551
PotionEffect	-11.3552
GAME	-11.3552
packageName	-11.3559
insets	-11.3561
||	-11.3572
Launch	-11.3578
GRA	-11.3582
mgr	-11.3584
importer	-11.3588
Neighbor	-11.3592
Variation	-11.3592
Solr	-11.3593
AUTHOR	-11.3593
▁\""	-11.36
▁contentValues	-11.3604
ToBe	-11.3611
ServletContext	-11.3613
decrypt	-11.362
invalid	-11.3627
currentThread	-11.3628
constant	-11.3631
Pokemon	-11.3633
pepper	-11.3633
Ontology	-11.3634
Capability	-11.3634
Suggestion	-11.3634
Randomizer	-11.3637
Road	-11.3638
special	-11.3642
MaterialDialog	-11.3644
gap	-11.3646
Dice	-11.3652
north	-11.3664
throw	-11.3666
Art	-11.3669
PDF	-11.3669
FULL	-11.3675
REFERENCE	-11.3675
physics	-11.3675
salesforce	-11.3675
DIRECT	-11.3675
night	-11.3679
▁constraints	-11.3679
LAST	-11.3689
ggp	-11.3709
Matches	-11.3714
bootstrap	-11.3716
blank	-11.3717
literal	-11.3717
ANCE	-11.3724
hang	-11.3726
▁onFailure	-11.3729
mapped	-11.3732
marc	-11.3752
Terra	-11.3753
Decimal	-11.3756
Increment	-11.3758
Instant	-11.3758
Retrieve	-11.3758
thumb	-11.3758
\")}")	-11.3759
Persistence	-11.3759
Catch	-11.3764
pred	-11.377
===	-11.3781
Forest	-11.3794
ROUND	-11.38
Craft	-11.38
ultitallented	-11.38
death	-11.3802
ontop	-11.3802
Activate	-11.3842
POJO	-11.3842
ordinal	-11.3842
orchestration	-11.3842
("\""	-11.3842
(((((((((((("	-11.3854
Poll	-11.3861
165	-11.3874
negative	-11.3884
BOTH	-11.3886
snack	-11.3886
activemq	-11.3888
MouseAdapter	-11.3893
currentState	-11.3902
{0}	-11.3903
osgi	-11.3908
Replica	-11.3926
tank	-11.3926
▁doInBackground	-11.3926
NORTH	-11.3926
birth	-11.3927
META	-11.3927
ChangeEvent	-11.3937
wyc	-11.3943
Clan	-11.395
frag	-11.3967
Battery	-11.3969
shuffle	-11.3969
thumbnail	-11.3969
ARRAY	-11.3969
BYTE	-11.3969
Scalar	-11.3969
titan	-11.3972
Notify	-11.3974
AsyncTask	-11.3979
AttributeValue	-11.3981
replicator	-11.3983
SlotState	-11.3997
maker	-11.4
Receipt	-11.4011
Creature	-11.4012
Ingredient	-11.4012
monster	-11.4012
dropdown	-11.4014
OPEN	-11.4014
will	-11.4015
hyper	-11.4017
etSelectedRow	-11.4017
Stick	-11.4019
AIR	-11.4023
Production	-11.4026
isPresent	-11.4039
Carbon	-11.4055
kylin	-11.4055
modify	-11.4058
Entered	-11.4059
dream	-11.4067
staff	-11.4076
Compile	-11.4086
php	-11.409
ADL	-11.4093
Positive	-11.4097
cause	-11.4097
veloziped	-11.4098
strategy	-11.4098
GOLD	-11.4098
redhat	-11.4098
teacher	-11.4098
DecimalFormat	-11.4099
disp	-11.4102
central	-11.4108
▁2)]	-11.4124
HAS	-11.4135
hole	-11.414
Archive	-11.4142
indices	-11.4143
▁given	-11.4143
Framework	-11.4151
prof	-11.4176
▁clicked	-11.4183
Aggregation	-11.4184
FloatingAction	-11.4185
DARK	-11.4185
killbill	-11.4185
statemachine	-11.4192
webservices	-11.4193
SHA	-11.4219
iatra	-11.4223
normalize	-11.4224
▁seekBar	-11.4228
chrome	-11.4228
Serialization	-11.4229
hawk	-11.4229
like	-11.4229
(((((((((("	-11.4231
hashCode	-11.4242
indent	-11.4243
crop	-11.4245
dealer	-11.4256
internet	-11.4267
disc	-11.4268
hunt	-11.4269
Canonical	-11.4272
OCommandSQL	-11.4272
EQUAL	-11.4272
afterTextChanged	-11.4272
setCellValue	-11.4272
fetchKeys	-11.4274
SECONDS	-11.4285
Shader	-11.4286
DNS	-11.429
resume	-11.4291
Binder	-11.4294
StatusBar	-11.43
browse	-11.4302
THE	-11.4309
Restriction	-11.4316
chosen	-11.4317
SQLiteDatabase	-11.4322
letter	-11.4335
adoo	-11.4335
mount	-11.4339
149	-11.434
mood	-11.434
pow	-11.4355
parallel	-11.436
INTERNAL	-11.436
CATEGORY	-11.436
doubleValue	-11.4366
south	-11.4368
Chest	-11.4371
Transitional	-11.4377
HAND	-11.4381
▁Matching	-11.4388
Make	-11.439
Geometry	-11.4405
OBJECT	-11.4405
avatar	-11.4405
\",\"	-11.4415
choice	-11.4419
potion	-11.4421
Decoder	-11.4422
ACC	-11.4429
dump	-11.4429
False	-11.4433
slider	-11.4442
distributed	-11.4449
Evaluation	-11.4449
bungee	-11.4449
Dashboard	-11.4449
allocate	-11.4449
mifos	-11.445
Logging	-11.4451
Corner	-11.4451
587.	-11.4457
GridLayout	-11.4475
gade	-11.4483
donorAcceptor	-11.4494
Organization	-11.4494
fabric	-11.4494
multiple	-11.4495
LAYOUT	-11.4496
[7]	-11.4499
alien	-11.4506
zmaster	-11.4508
Lexer	-11.4512
IllegalAccessE	-11.4536
Twitter	-11.4539
favorite	-11.4539
▁animator	-11.4539
TimeInMillis	-11.4539
RiskTreatment	-11.4539
clothing	-11.4539
▁"/10")	-11.454
factor	-11.4549
ObjectMapper	-11.4565
Subfile	-11.4566
Frag	-11.4584
hotel	-11.4585
Interceptor	-11.4585
journal	-11.4585
SEARCH	-11.4585
Known	-11.4585
built	-11.4585
ogy	-11.4586
044	-11.4591
Minimum	-11.4596
▁setSupport	-11.4598
▁0.1	-11.4602
bool	-11.4607
soap	-11.4618
AKE	-11.4623
Align	-11.4629
Warehouse	-11.463
Producer	-11.463
XQueryAST	-11.463
BOARD	-11.463
perun	-11.463
HOUR	-11.4631
heart	-11.4631
Expense	-11.4632
tomcat	-11.4633
EXIT	-11.4634
prompt	-11.4635
buff	-11.4644
Shop	-11.4661
eight	-11.4675
thinkge	-11.4675
aggregation	-11.4676
Should	-11.4676
FILTER	-11.4676
222	-11.4676
BASELINE	-11.4677
repeat	-11.4677
Percentage	-11.4678
HttpRequest	-11.4693
reactive	-11.4698
Manipulator	-11.4722
Include	-11.4722
annualPremium	-11.4722
MENU	-11.4722
Arena	-11.4722
discord	-11.4722
EXIST	-11.4722
yysp	-11.4723
Voice	-11.4724
TEMP	-11.4726
buildcraft	-11.4733
susi	-11.4735
lesson	-11.4744
(2000	-11.4748
emiumPaymentTerm	-11.4758
getFa	-11.4762
siddhi	-11.4768
override	-11.4768
concord	-11.4768
Triangle	-11.4769
bitcoin	-11.477
KeyCode	-11.477
Successfully	-11.4772
jwt	-11.4776
leave	-11.4783
Grant	-11.4784
▁137	-11.4788
BitmapFactory	-11.4789
robat	-11.479
HOST	-11.4795
PLAY	-11.481
Calculation	-11.4814
Annotated	-11.4814
DEVICE	-11.4814
Assessment	-11.4814
Blob	-11.4814
moveToNext	-11.4815
Serv	-11.4816
▁codeGenerator	-11.4819
bike	-11.482
Slide	-11.4844
rock	-11.4856
duplicate	-11.486
MINUTE	-11.486
CLIENT	-11.4861
TIMEOUT	-11.4862
grammarAccess	-11.4868
WHERE	-11.4886
STREAM	-11.4907
Speech	-11.4907
TextWatcher	-11.4907
LINK	-11.4907
album	-11.4907
initiator	-11.4908
torrent	-11.4909
|=	-11.4911
CompoundButton	-11.4916
habit	-11.4921
credit	-11.4923
Wheel	-11.4954
Suffix	-11.4954
Episode	-11.4954
district	-11.4955
slice	-11.4958
successful	-11.496
Retry	-11.4961
PopupMenu	-11.4967
Decode	-11.4976
Longitude	-11.4978
radius	-11.4982
waste	-11.4985
BSD	-11.4999
Translator	-11.5001
snappydata	-11.5001
Wizard	-11.5001
Footer	-11.5001
coffee	-11.5001
mDom	-11.5002
shoot	-11.5002
Unofficial	-11.5002
Budget	-11.5003
interpol	-11.5003
ExportMask	-11.5003
▁levelOver	-11.5005
texas	-11.5027
bgp	-11.5028
gallery	-11.5049
DIALOG	-11.5049
LIMIT	-11.5049
hidden	-11.5049
Pedido	-11.5049
Sadl	-11.5049
Boundary	-11.5051
expense	-11.506
TILE	-11.5069
DeviceController	-11.5078
padding	-11.5087
berkeley	-11.5096
coverage	-11.5096
COMMENT	-11.5098
Toolkit	-11.5098
secret	-11.5099
respond	-11.51
Generate	-11.5121
Patch	-11.5144
operand	-11.5145
drill	-11.5149
delivery	-11.5152
optimizer	-11.5152
▁same	-11.5153
])++	-11.516
705	-11.5166
\">"	-11.5175
GoogleApiClient	-11.5192
Weapon	-11.5192
Elastic	-11.5192
Thing	-11.5194
Latest	-11.5197
CPU	-11.5198
gama	-11.5227
Collect	-11.5235
middle	-11.524
Fingerprint	-11.524
Ehcache	-11.5241
Territory	-11.5241
plastic	-11.5241
QTY	-11.5241
degree	-11.5241
closing	-11.5242
NBT	-11.5242
▁supported	-11.5256
Reaction	-11.5259
voice	-11.5266
PLACE	-11.5289
distinct	-11.5289
QUERY	-11.5289
UNKNOWN	-11.5289
Cross	-11.5289
appear	-11.5293
Town	-11.532
Draft	-11.5338
Ingest	-11.5338
Micro	-11.5338
onTextChanged	-11.5339
naming	-11.534
until	-11.5358
MatchingType	-11.5359
beam	-11.5368
blackjack	-11.5387
obtain	-11.5387
▁cleanup	-11.5387
Shopping	-11.5387
compound	-11.5387
micromanager	-11.5389
▁due	-11.5434
invocation	-11.5436
elapsed	-11.5436
Coverage	-11.5436
Spacing	-11.5436
telegram	-11.5436
ystrix	-11.5437
Living	-11.5437
ocean	-11.5437
Quality	-11.5437
IntegrationTest	-11.5441
Offline	-11.5453
opcode	-11.5455
OptionsMenu	-11.5468
revision	-11.5473
uterAl	-11.5486
LoggedIn	-11.5486
OVWMigration	-11.5486
between	-11.5486
declaration	-11.5486
purchase	-11.5486
terminal	-11.5486
Comparison	-11.5486
deposit	-11.5486
▁enterO	-11.5498
Visual	-11.5535
Challenge	-11.5535
Thumb	-11.5535
department	-11.5535
TitledBorder	-11.5535
▁occurred	-11.5535
holiday	-11.5535
BUFFER	-11.5535
caught	-11.5535
lecture	-11.5536
▁100.0	-11.554
aaa	-11.5566
Dungeon	-11.5585
avail	-11.5589
Delivery	-11.5594
▁subCategory	-11.5594
observe	-11.5606
Latitude	-11.5615
prime	-11.5624
VotingPlugin	-11.5636
Temperature	-11.5636
Human	-11.5636
Medium	-11.5636
PASSWORD	-11.5636
▁during	-11.5636
▁walkable	-11.5636
▁please	-11.5636
Recycler	-11.5638
websocket	-11.5647
SAVE	-11.5661
COMPLETE	-11.5686
STORAGE	-11.5686
ANTLR	-11.5686
ProductionOrders	-11.5686
popularmovies	-11.5686
SalesOrders	-11.5686
mutation	-11.5686
human	-11.5694
▁"]")	-11.5706
checkBox	-11.5714
disk	-11.5737
Mirror	-11.5737
Reservation	-11.5737
mosaic	-11.5737
pheno	-11.5738
ADMIN	-11.5739
PsiBuilder	-11.5744
Backend	-11.5755
Throttle	-11.5788
mozilla	-11.5788
FIRST	-11.5788
LABEL	-11.5788
Beacon	-11.5788
pivot	-11.5788
daily	-11.5788
Travel	-11.5789
epositoryFileDto	-11.5792
PASS	-11.5792
intersection	-11.5796
JRadioButton	-11.5798
▁outputWriter	-11.5799
ComplexContext	-11.5799
PRESS	-11.5812
=======	-11.5824
Analytics	-11.5839
Department	-11.5839
Minecraft	-11.5839
Burnisher	-11.5839
Hotel	-11.5839
graphViz	-11.5839
extended	-11.584
Nested	-11.5843
minuts	-11.5844
club	-11.5849
bump	-11.5853
Taxon	-11.5853
playerTurn	-11.5886
Compress	-11.5889
community	-11.5891
Saving	-11.5891
fluid	-11.5893
---------	-11.5899
scala	-11.5911
(0.5	-11.5916
Most	-11.593
Figure	-11.5943
premium	-11.5943
DOUBLE	-11.5943
Holiday	-11.5943
(49.809	-11.5943
Qualified	-11.5943
denizen	-11.5943
STRUCT	-11.5943
RegistersAnd	-11.5943
NaN	-11.5943
aba	-11.595
Reward	-11.595
▁actionBar	-11.5952
unSimulation	-11.5994
physical	-11.5995
Monster	-11.5995
Solver	-11.5995
GRANTED	-11.5995
Related	-11.5995
animals	-11.5995
Gear	-11.5996
Facebook	-11.5998
xssf	-11.5999
SignUp	-11.5999
Multipart	-11.6
FRAGMENT	-11.6047
hospital	-11.6047
Cipher	-11.6047
CLEAR	-11.6047
Purchase	-11.6047
phrase	-11.6047
Gateway	-11.6047
encoding	-11.6055
PublicKey	-11.6056
LocalDateTime	-11.606
excel	-11.6061
WEST	-11.6094
BiomeGenBase	-11.61
terminate	-11.61
yahoo	-11.61
crazy	-11.61
translator	-11.61
Invoke	-11.61
reject	-11.61
Identification	-11.61
RECORD	-11.61
▁information	-11.61
Quota	-11.6102
EditVacancyManag	-11.6108
recap	-11.6119
bytecode	-11.6127
Illegal	-11.6149
Crypto	-11.6153
Conflict	-11.6153
Diagnostic	-11.6153
Gallery	-11.6153
SOUTH	-11.6153
DISPLAY	-11.6153
Cube	-11.6154
upgradeVersion	-11.6155
CommandSender	-11.6159
Inspect	-11.6162
xposed	-11.6168
SECOND	-11.6178
concert	-11.6196
Deploy	-11.6204
ambari	-11.6206
lifeIssuredAge	-11.6206
Motion	-11.6207
Pipeline	-11.621
Spell	-11.621
Playback	-11.6211
Arch	-11.6213
Expire	-11.6218
yakin	-11.6218
Maximum	-11.6228
CASE	-11.6242
wake	-11.6246
Miss	-11.6256
Reflection	-11.6259
Survey	-11.6259
capacity	-11.6259
SCALE	-11.6259
HOME	-11.6259
WEB	-11.6259
FacesMessage	-11.626
major	-11.626
▁dispatcher	-11.626
rollback	-11.6263
Specification	-11.6265
Discover	-11.6302
Specific	-11.631
tprojekt	-11.6311
CACHE	-11.6313
Daily	-11.6313
OnTouchListener	-11.6313
ACTIVE	-11.6313
AFK	-11.6313
MouseClicked	-11.6314
Look	-11.6316
Potion	-11.6316
**	-11.6316
Midi	-11.6327
Winner	-11.6329
countDown	-11.6345
obda	-11.6349
Departure	-11.6367
facing	-11.6369
Bien	-11.637
900	-11.6399
Facing	-11.6421
RETURN	-11.6421
manifest	-11.6421
alacticraft	-11.6421
Manual	-11.6422
Requirement	-11.6422
REMOVE	-11.6424
VALID	-11.6474
tudelft	-11.6476
Coordinator	-11.6476
Individual	-11.6476
FOLDER	-11.6476
capital	-11.6476
findFragmentBy	-11.6477
enrich	-11.6478
RFL	-11.6484
which	-11.6495
groovy	-11.6531
Heuristic	-11.6531
opponent	-11.6531
▁specified	-11.6531
Observation	-11.6531
VOLUME	-11.6531
Institution	-11.6531
doodle	-11.6531
vessel	-11.6531
ieee	-11.6531
sphere	-11.6531
ufffd	-11.6531
ACCOUNT	-11.6532
wolf	-11.6532
getPackageName	-11.6533
spotify	-11.6533
Wallet	-11.6536
getChildAt	-11.6536
Mediator	-11.6541
glide	-11.6555
ATTR	-11.6558
Gesture	-11.6586
COMMAND	-11.6586
Cassandra	-11.6586
Shadow	-11.6586
picasso	-11.6586
Avatar	-11.6586
lectric	-11.6586
Jump	-11.6587
alloy	-11.6588
aspect	-11.6589
▁1024	-11.6593
jdk	-11.6594
criteria	-11.6609
Detection	-11.6642
horizontal	-11.6642
ALIGN	-11.6642
BRACKET	-11.6642
Encoded	-11.6642
bubble	-11.6642
PUSH	-11.6642
knowledge	-11.6642
mipmap	-11.6642
Initialization	-11.6643
setImageBitmap	-11.6644
Reduce	-11.6644
isRunOn	-11.6645
Disconnect	-11.6669
criterion	-11.6698
SETTINGS	-11.6698
dictionary	-11.6698
LEVEL	-11.6698
FAILURE	-11.6698
Modification	-11.67
ouch	-11.6708
▁"2"	-11.6723
analyze	-11.6736
BOTTOM	-11.6754
Connectivity	-11.6754
Inject	-11.6754
SYNC	-11.6754
Teacher	-11.6754
OUTPUT	-11.6754
piere	-11.6755
ENTITY	-11.6755
Initializer	-11.6756
Using	-11.6759
Transformation	-11.676
strict	-11.6789
secondary	-11.6805
Procedure	-11.681
assessment	-11.681
SCROLL	-11.681
School	-11.681
stratos	-11.681
completion	-11.681
Audit	-11.681
uhn	-11.6811
ROOT	-11.6812
risk	-11.6813
Compression	-11.6814
MEDIA	-11.6814
acktracking	-11.6815
▁provide	-11.6822
leaf	-11.6833
Triple	-11.6837
Premium	-11.6866
NfcService	-11.6867
▁enough	-11.6867
ONLY	-11.6867
JDBC	-11.6867
Elem	-11.6868
suggestion	-11.6868
cyberd	-11.6924
Exercise	-11.6924
Difference	-11.6924
Syntactic	-11.6924
Centric	-11.6924
Extended	-11.6924
RUNNING	-11.6924
OTHER	-11.6924
sufficient	-11.6924
rssale	-11.6925
characteristic	-11.6925
PermissionGrant	-11.6925
SALE	-11.6929
ENTER	-11.6929
creation	-11.6929
Island	-11.6932
onDestroy	-11.6933
iterate	-11.6966
chromi	-11.6981
synapse	-11.6982
SESSION	-11.6982
Silver	-11.6982
SPEED	-11.6982
iracle	-11.6982
EXTERNAL	-11.6982
PROCESS	-11.6982
Expanded	-11.6982
tomNumInResidueB	-11.6982
Raster	-11.6982
loaderWriter	-11.6987
Discount	-11.6991
blob	-11.6999
discover	-11.703
PATTERN	-11.704
DESCRIPTORS	-11.704
polygon	-11.704
digest	-11.704
▁onDataChange	-11.704
outgoing	-11.704
NEAT	-11.7044
0-9	-11.7057
fingerprint	-11.7098
Tweet	-11.7098
FUNCTION	-11.7098
BgPicture	-11.7098
programming	-11.7098
Indent	-11.7098
setImageDrawable	-11.7099
onActivityResult	-11.71
smarthome	-11.7103
*****	-11.7109
deserialize	-11.7146
bonitasoft	-11.7156
Middle	-11.7156
YELLOW	-11.7156
oushou	-11.7156
CAMERA	-11.7156
Interpolator	-11.7156
nfvo	-11.7156
visibility	-11.7157
UNRELATED	-11.7158
▁because	-11.7158
▁premiumPayment	-11.7169
SRC	-11.7173
singleton	-11.7193
***	-11.7205
WealthGrowth	-11.7213
almalence	-11.7215
authenticate	-11.7215
survey	-11.7215
people	-11.7215
LIKE	-11.7215
INNER	-11.7215
pitt	-11.7215
setCancelable	-11.7215
smooth	-11.7215
Brick	-11.7215
shopping	-11.7216
OFFSET	-11.7216
audit	-11.7217
arry	-11.7222
MOST	-11.7223
ratio	-11.7227
quota	-11.7232
Expansion	-11.7274
EMAIL	-11.7274
FEATURE	-11.7274
People	-11.7274
IDENTIFIER	-11.7274
annotator	-11.7274
CARD	-11.7275
Dark	-11.7275
triangle	-11.7276
Perform	-11.7281
utopsy	-11.7281
financ	-11.7306
butter	-11.7309
amara	-11.7331
discard	-11.7332
cobble	-11.7334
Advance	-11.7334
Lecture	-11.7334
Scenario	-11.7334
BOOLEAN	-11.7334
Preconditions	-11.7334
timeStamp	-11.7334
Creating	-11.7334
JFileChooser	-11.7334
reservation	-11.7334
onCheckedChanged	-11.7334
equip	-11.7334
science	-11.7336
Datum	-11.7338
miniJava	-11.7338
permutation	-11.7341
ponses	-11.7382
knife	-11.7394
Nickname	-11.7394
CarSpot	-11.7394
Enumeration	-11.7394
▁avance	-11.7394
setViewport	-11.7394
Lifecycle	-11.7395
waypoint	-11.7451
intersect	-11.7451
DURATION	-11.7454
tournament	-11.7454
dynamo	-11.7454
Leaf	-11.7454
while	-11.7502
acancyManagement	-11.7504
PagerAdapter	-11.7506
MARK	-11.7513
behavior	-11.7514
Chrono	-11.7514
Opponent	-11.7514
aggregate	-11.7514
minimum	-11.7515
PARSER	-11.7515
UserSettingState	-11.7515
middleware	-11.7515
Tank	-11.7515
mapreduce	-11.7518
Syn	-11.7524
Die	-11.7553
specific	-11.7575
ibVulpes	-11.7575
Dossier	-11.7575
Residue	-11.7575
quartz	-11.7575
PUBLIC	-11.7575
IndexOutOfBounds	-11.7575
WorkInProgress	-11.7575
Hyper	-11.7576
CONNECTION	-11.7576
vendor	-11.7576
robotics	-11.7578
Measurement	-11.758
Hero	-11.7585
yyst	-11.7601
Eye	-11.7606
metro	-11.7616
private	-11.7628
tosca	-11.7631
orthbound	-11.7636
Hadoop	-11.7637
Authenticator	-11.7637
Malformed	-11.7637
mirror	-11.7637
wicket	-11.7637
participant	-11.7637
mqtt	-11.7642
Communication	-11.7692
Ability	-11.7698
Protection	-11.7698
Messaging	-11.7698
REGULAR	-11.7698
DESCRIPTION	-11.7698
CHANNEL	-11.7698
PlannedStock	-11.7699
StockEndOfPeriod	-11.7699
tomNumInResidueA	-11.7699
[{}]	-11.7699
Moving	-11.7699
projekt	-11.77
alignment	-11.7701
Stub	-11.7705
compose	-11.7727
Sampling	-11.7761
TEMPLATE	-11.7761
facility	-11.7761
modification	-11.7764
Lane	-11.7764
drug	-11.7765
coordinate	-11.7817
icketFareAirline	-11.7823
Traffic	-11.7823
isAssignable	-11.7823
SubnetRoute	-11.7823
Macro	-11.7823
▁oprot	-11.7824
caption	-11.7826
discount	-11.7828
fusion	-11.7876
UnchangedRB	-11.7886
ELEMENT	-11.7886
Welcome	-11.7886
Association	-11.7886
Multiplier	-11.7886
principal	-11.7886
FLOAT	-11.7886
Palette	-11.7886
WEEK	-11.7886
tutorial	-11.7886
visualization	-11.7886
ninja	-11.7887
Whitespace	-11.7888
robert	-11.789
Need	-11.7904
nuxeo	-11.7949
observable	-11.7949
Through	-11.7949
WINDOW	-11.7949
little	-11.7949
weapon	-11.7949
Division	-11.7949
Possible	-11.7949
TextInputLayout	-11.7949
Maven	-11.795
banner	-11.7952
INTENT	-11.7952
▁colspan	-11.7952
WAIT	-11.7953
Shot	-11.7955
dhis	-11.796
expire	-11.7994
sigmah	-11.8013
DRAW	-11.8013
IFIED	-11.8013
ProjectKorra	-11.8013
automata	-11.8013
FINISH	-11.8013
Spectrum	-11.8013
Supplier	-11.8013
factories	-11.8015
ingletonList	-11.802
Privilege	-11.8077
automation	-11.8077
IGNORE	-11.8077
portfolio	-11.8077
xelor	-11.8077
SharedPrefs	-11.8078
777	-11.8121
RACE	-11.8132
MANAGE	-11.8142
GRAPH	-11.8142
Harvest	-11.8142
AnnualPremium	-11.8142
telefon	-11.8142
Plain	-11.8142
onstellio	-11.8143
placeholder	-11.8153
polimi	-11.8206
episode	-11.8206
MyDBHandler	-11.8207
DETAIL	-11.8207
TARGET	-11.8207
postgresql	-11.8207
nRent	-11.821
Routing	-11.8213
Invite	-11.8216
▁contain	-11.8254
Implementation	-11.8272
TimeStamp	-11.8272
association	-11.8272
getParcelable	-11.8272
disposable	-11.8272
remainder	-11.8272
deliver	-11.8332
PiEffect	-11.8338
xtLifeInsuredAge	-11.8338
VIDEO	-11.8338
PROVIDER	-11.8338
STYLE	-11.8338
mgmt	-11.8338
NameValuePair	-11.8338
Wild	-11.8338
Fixture	-11.8339
Dump	-11.8339
▁cattype	-11.834
squid	-11.8341
Selenium	-11.8404
lexandria	-11.8404
Bubble	-11.8404
neighbour	-11.8404
excitement	-11.8404
FEEDBACK	-11.8404
acqSettings	-11.8404
888888	-11.8404
DELAY	-11.8405
wordnik	-11.8406
Verification	-11.8406
Spring	-11.8407
Curve	-11.8409
lberta	-11.8409
initialization	-11.8414
Deliver	-11.846
Integration	-11.8465
Vessel	-11.8471
DatagramPacket	-11.8471
ENABLED	-11.8471
consistency	-11.8471
ingredient	-11.8471
Bracket	-11.8471
producer	-11.8471
chapter	-11.8471
Shoot	-11.8471
sqrt	-11.8471
catalogue	-11.8473
contrib	-11.8474
replica	-11.8475
Hierarchy	-11.8533
Decoration	-11.8538
foodisgood	-11.8538
Facility	-11.8538
JAVA	-11.8538
temperature	-11.8538
Picasso	-11.8538
Blood	-11.8538
ENTRY	-11.8538
Crop	-11.8539
earth	-11.8552
numeric	-11.8557
AVAILABLE	-11.8605
DatosGraficos	-11.8605
terasol	-11.8605
Expiration	-11.8605
Volunteer	-11.8605
Acquisition	-11.8605
SNAPSHOT	-11.8605
eroxy	-11.8605
Capabilities	-11.8605
globi	-11.8605
NEXT	-11.8606
getFullName	-11.8606
fulfill	-11.8606
▁xmlSerializer	-11.8607
IGHT	-11.8628
Collaps	-11.8673
ADDRESS	-11.8673
MILLISECONDS	-11.8673
EXCEPTION	-11.8673
Produces	-11.8673
='3'>	-11.8673
sandbox	-11.8674
Given	-11.8674
Suite	-11.8674
FORCE	-11.8675
handling	-11.8676
nucleus	-11.8742
cadpage	-11.8742
uiautomator	-11.8742
Airavata	-11.8742
Bullet	-11.8742
Cooldown	-11.8742
▁((28794890	-11.8742
PLUGIN	-11.8742
variation	-11.8743
EnumFacing	-11.8743
▁following	-11.8743
SwipeRefresh	-11.8743
equiv	-11.8743
clove	-11.8745
genetic	-11.8745
nimeInformation	-11.8775
Strength	-11.8811
diagnostic	-11.8811
Braille	-11.8811
europa	-11.8811
qualified	-11.8811
FRAME	-11.8811
TRACK	-11.8811
facade	-11.8811
disguise	-11.8811
Assist	-11.8811
nested	-11.8813
reduce	-11.8815
Destroy	-11.8869
GriefPrevention	-11.888
Simulator	-11.888
GreaterThan	-11.888
precision	-11.888
Fitness	-11.888
NETWORK	-11.888
battery	-11.888
pagination	-11.888
struts	-11.8881
convertStringTo	-11.8881
film	-11.8895
AUTH	-11.8949
linux	-11.895
Entitlement	-11.895
▁different	-11.895
harvest	-11.895
organization	-11.8951
tackInSlot	-11.8951
Browse	-11.9006
kandoe	-11.902
AemDemo	-11.902
dvancedRocketry	-11.902
Digest	-11.9021
Social	-11.9021
SINGLE	-11.9021
suffix	-11.9021
▁jLabelHF	-11.9021
PHONE	-11.9021
getGas	-11.9023
17500	-11.903
inspect	-11.9081
Distributed	-11.9091
embedded	-11.9091
INFORMATION	-11.9091
RANGE	-11.9091
through	-11.9091
SPECIAL	-11.9091
desired	-11.9092
moena	-11.9092
':'	-11.9129
tragic	-11.9163
Envelope	-11.9163
Exclude	-11.9163
OpenGLRenderer	-11.9163
redPanda	-11.9163
PRIMARY	-11.9163
jersey	-11.9163
▁'{}'	-11.9163
Severity	-11.9163
jaxrs	-11.9163
spatial	-11.9163
passenger	-11.9163
▁realmResults	-11.9163
Mutable	-11.9163
clause	-11.9163
StringValueDto	-11.9163
▁navigationView	-11.9164
vibra	-11.9197
invite	-11.9204
takeaway	-11.9235
gearvrf	-11.9235
Physics	-11.9235
Hardware	-11.9235
INFINITY	-11.9235
Recipient	-11.9235
acquisition	-11.9235
certificate	-11.9235
recommend	-11.9235
FACE	-11.9236
Resume	-11.9304
PRODUCT	-11.9307
Retrofit	-11.9307
LessThan	-11.9307
individual	-11.9307
absolute	-11.9307
Alternative	-11.9307
BasicDBObject	-11.9307
Desktop	-11.9307
jaxb	-11.9308
Bonus	-11.9308
tower	-11.932
approve	-11.9346
Preferred	-11.9355
Delimiter	-11.938
alfresco	-11.938
written	-11.938
INTERVAL	-11.938
Proposal	-11.938
▁occured	-11.938
Queries	-11.938
paging	-11.9383
weixin	-11.9454
INITIAL	-11.9454
Until	-11.9454
Hello	-11.9454
REGEX	-11.9455
edtWealthGrowth	-11.9457
Swap	-11.946
[8]	-11.9466
bouncycastle	-11.9528
Combined	-11.9528
Major	-11.9528
UnManaged	-11.9528
Developer	-11.9528
polito	-11.9528
Adjustment	-11.9528
FORWARD	-11.9528
tinker	-11.9528
Visualization	-11.9528
Foreground	-11.9572
Lead	-11.9587
ALARM	-11.9602
Splash	-11.9603
XobjList	-11.9603
maximum	-11.9603
opennms	-11.9603
Demand	-11.9603
Boot	-11.9604
Parallel	-11.9674
elastic	-11.9677
RenderingHints	-11.9678
Intrinsic	-11.9678
POSITIVE	-11.9678
JPEG	-11.9678
Third	-11.9678
population	-11.9678
pheidippides	-11.9678
trackedEntity	-11.9678
john	-11.9678
Bolt	-11.9678
Pressure	-11.9678
demand	-11.9691
ndExpect	-11.9751
LocalDnsHelper	-11.9753
Additions	-11.9753
ExifDriver	-11.9753
AUDIO	-11.9753
entitlement	-11.9753
navigator	-11.9753
Nearest	-11.9753
Protein	-11.9753
jackrabbit	-11.9753
Clazz	-11.9754
rabbit	-11.9754
Guest	-11.9754
comparison	-11.9754
KcaBattle	-11.9754
JWT	-11.9754
streak	-11.9754
▁EditJob	-11.9754
slack	-11.9754
[0-9]	-11.9759
clickedBlock	-11.9817
ncyName	-11.9829
Cutter	-11.983
Ancestor	-11.983
OPERATION	-11.983
decimal	-11.983
departure	-11.983
oncokb	-11.983
shelf	-11.983
describe	-11.9831
Since	-11.9832
Nano	-11.9839
alculateDistance	-11.9839
fyre	-11.9871
rakn	-11.9897
STORE	-11.9898
lunchkaki	-11.9907
optimization	-11.9907
Discussed	-11.9907
RESPONSE	-11.9907
▁riskTreatment	-11.9907
Belief	-11.9907
potential	-11.9907
daniel	-11.9907
yellow	-11.9907
jabel	-11.9908
JAXB	-11.9918
ffective	-11.992
COMPONENT	-11.9984
glassfish	-11.9984
Dependent	-11.9984
FOCUS	-11.9984
Written	-11.9984
league	-11.9984
Regular	-11.9984
Accuracy	-11.9984
python	-11.9984
TOTAL	-11.9984
transcript	-11.9984
hvl	-11.9985
increase	-11.9985
wealth	-11.9992
fighter	-12.0062
galaxy	-12.0062
snippet	-12.0062
Arrival	-12.0062
Population	-12.0062
RECIPE	-12.0062
cytoscape	-12.0062
illumination	-12.0062
tunnel	-12.0062
assembly	-12.0062
vocabulary	-12.0062
CLICK	-12.0062
ChemicalRecipe	-12.0062
girls	-12.0062
onBackPressed	-12.0062
While	-12.0062
▁jLabelKF	-12.0062
Drug	-12.0063
DROP	-12.0063
osmand	-12.0063
adiu	-12.0065
CONTACT	-12.0141
Holdings	-12.0141
GridBagLayout	-12.0141
Diamond	-12.0141
LANGUAGE	-12.0141
junction	-12.0141
lobby	-12.0141
WIFI	-12.0141
candidateDataDto	-12.0141
▁primaryStage	-12.0141
Vision	-12.0141
odjam	-12.0153
SCRIPT	-12.0178
cloudfoundry	-12.022
Latency	-12.022
Marshaller	-12.022
HomeAsUp	-12.022
algebra	-12.022
▁edtWfsi	-12.022
Copies	-12.0221
Prompt	-12.0221
Fraction	-12.0222
Require	-12.0273
faitic	-12.03
OreDictionary	-12.03
License	-12.03
Pagination	-12.03
\":{\"	-12.03
cooked	-12.0301
Xposed	-12.0301
opensrp	-12.0301
silver	-12.0301
▁addChildNode	-12.0302
Sleep	-12.0302
prior	-12.0304
registrie	-12.0381
Libraries	-12.0381
lojure	-12.0381
DayOfWeek	-12.0381
StringLiteralDfa	-12.0381
Evidence	-12.0381
lMoveIndex	-12.0381
▁'/')	-12.0382
prism	-12.0385
North	-12.0412
Encryption	-12.0462
Maintenance	-12.0462
